{
  "version": "1.0",
  "truncation": null,
  "padding": null,
  "added_tokens": [
    {
      "id": 0,
      "content": "<pad>",
      "single_word": false,
      "lstrip": false,
      "rstrip": false,
      "normalized": false,
      "special": true
    },
    {
      "id": 1,
      "content": "<bos>",
      "single_word": false,
      "lstrip": false,
      "rstrip": false,
      "normalized": false,
      "special": true
    },
    {
      "id": 2,
      "content": "<eos>",
      "single_word": false,
      "lstrip": false,
      "rstrip": false,
      "normalized": false,
      "special": true
    },
    {
      "id": 3,
      "content": "<unk>",
      "single_word": false,
      "lstrip": false,
      "rstrip": false,
      "normalized": false,
      "special": true
    }
  ],
  "normalizer": null,
  "pre_tokenizer": {
    "type": "ByteLevel",
    "add_prefix_space": false,
    "trim_offsets": true,
    "use_regex": true
  },
  "post_processor": {
    "type": "ByteLevel",
    "add_prefix_space": true,
    "trim_offsets": false,
    "use_regex": true
  },
  "decoder": {
    "type": "ByteLevel",
    "add_prefix_space": true,
    "trim_offsets": true,
    "use_regex": true
  },
  "model": {
    "type": "BPE",
    "dropout": null,
    "unk_token": "<unk>",
    "continuing_subword_prefix": null,
    "end_of_word_suffix": null,
    "fuse_unk": false,
    "byte_fallback": false,
    "ignore_merges": false,
    "vocab": {
      "<pad>": 0,
      "<bos>": 1,
      "<eos>": 2,
      "<unk>": 3,
      "!": 4,
      "\"": 5,
      "#": 6,
      "$": 7,
      "%": 8,
      "&": 9,
      "'": 10,
      "(": 11,
      ")": 12,
      "*": 13,
      "+": 14,
      ",": 15,
      "-": 16,
      ".": 17,
      "/": 18,
      "0": 19,
      "1": 20,
      "2": 21,
      "3": 22,
      "4": 23,
      "5": 24,
      "6": 25,
      "7": 26,
      "8": 27,
      "9": 28,
      ":": 29,
      ";": 30,
      "<": 31,
      "=": 32,
      ">": 33,
      "?": 34,
      "@": 35,
      "A": 36,
      "B": 37,
      "C": 38,
      "D": 39,
      "E": 40,
      "F": 41,
      "G": 42,
      "H": 43,
      "I": 44,
      "J": 45,
      "K": 46,
      "L": 47,
      "M": 48,
      "N": 49,
      "O": 50,
      "P": 51,
      "Q": 52,
      "R": 53,
      "S": 54,
      "T": 55,
      "U": 56,
      "V": 57,
      "W": 58,
      "X": 59,
      "Y": 60,
      "Z": 61,
      "[": 62,
      "\\": 63,
      "]": 64,
      "^": 65,
      "_": 66,
      "`": 67,
      "a": 68,
      "b": 69,
      "c": 70,
      "d": 71,
      "e": 72,
      "f": 73,
      "g": 74,
      "h": 75,
      "i": 76,
      "j": 77,
      "k": 78,
      "l": 79,
      "m": 80,
      "n": 81,
      "o": 82,
      "p": 83,
      "q": 84,
      "r": 85,
      "s": 86,
      "t": 87,
      "u": 88,
      "v": 89,
      "w": 90,
      "x": 91,
      "y": 92,
      "z": 93,
      "{": 94,
      "|": 95,
      "}": 96,
      "~": 97,
      "¡": 98,
      "¢": 99,
      "£": 100,
      "¤": 101,
      "¥": 102,
      "¦": 103,
      "§": 104,
      "¨": 105,
      "©": 106,
      "ª": 107,
      "«": 108,
      "¬": 109,
      "®": 110,
      "¯": 111,
      "°": 112,
      "±": 113,
      "²": 114,
      "³": 115,
      "´": 116,
      "µ": 117,
      "¶": 118,
      "·": 119,
      "¸": 120,
      "¹": 121,
      "º": 122,
      "»": 123,
      "¼": 124,
      "½": 125,
      "¾": 126,
      "¿": 127,
      "À": 128,
      "Á": 129,
      "Â": 130,
      "Ã": 131,
      "Ä": 132,
      "Å": 133,
      "Æ": 134,
      "Ç": 135,
      "È": 136,
      "É": 137,
      "Ê": 138,
      "Ë": 139,
      "Ì": 140,
      "Í": 141,
      "Î": 142,
      "Ï": 143,
      "Ð": 144,
      "Ñ": 145,
      "Ò": 146,
      "Ó": 147,
      "Ô": 148,
      "Õ": 149,
      "Ö": 150,
      "×": 151,
      "Ø": 152,
      "Ù": 153,
      "Ú": 154,
      "Û": 155,
      "Ü": 156,
      "Ý": 157,
      "Þ": 158,
      "ß": 159,
      "à": 160,
      "á": 161,
      "â": 162,
      "ã": 163,
      "ä": 164,
      "å": 165,
      "æ": 166,
      "ç": 167,
      "è": 168,
      "é": 169,
      "ê": 170,
      "ë": 171,
      "ì": 172,
      "í": 173,
      "î": 174,
      "ï": 175,
      "ð": 176,
      "ñ": 177,
      "ò": 178,
      "ó": 179,
      "ô": 180,
      "õ": 181,
      "ö": 182,
      "÷": 183,
      "ø": 184,
      "ù": 185,
      "ú": 186,
      "û": 187,
      "ü": 188,
      "ý": 189,
      "þ": 190,
      "ÿ": 191,
      "Ā": 192,
      "ā": 193,
      "Ă": 194,
      "ă": 195,
      "Ą": 196,
      "ą": 197,
      "Ć": 198,
      "ć": 199,
      "Ĉ": 200,
      "ĉ": 201,
      "Ċ": 202,
      "ċ": 203,
      "Č": 204,
      "č": 205,
      "Ď": 206,
      "ď": 207,
      "Đ": 208,
      "đ": 209,
      "Ē": 210,
      "ē": 211,
      "Ĕ": 212,
      "ĕ": 213,
      "Ė": 214,
      "ė": 215,
      "Ę": 216,
      "ę": 217,
      "Ě": 218,
      "ě": 219,
      "Ĝ": 220,
      "ĝ": 221,
      "Ğ": 222,
      "ğ": 223,
      "Ġ": 224,
      "ġ": 225,
      "Ģ": 226,
      "ģ": 227,
      "Ĥ": 228,
      "ĥ": 229,
      "Ħ": 230,
      "ħ": 231,
      "Ĩ": 232,
      "ĩ": 233,
      "Ī": 234,
      "ī": 235,
      "Ĭ": 236,
      "ĭ": 237,
      "Į": 238,
      "į": 239,
      "İ": 240,
      "ı": 241,
      "Ĳ": 242,
      "ĳ": 243,
      "Ĵ": 244,
      "ĵ": 245,
      "Ķ": 246,
      "ķ": 247,
      "ĸ": 248,
      "Ĺ": 249,
      "ĺ": 250,
      "Ļ": 251,
      "ļ": 252,
      "Ľ": 253,
      "ľ": 254,
      "Ŀ": 255,
      "ŀ": 256,
      "Ł": 257,
      "ł": 258,
      "Ń": 259,
      "á»": 260,
      "Ġt": 261,
      "ng": 262,
      "Ġc": 263,
      "Ġa": 264,
      "Ġth": 265,
      "Ġs": 266,
      "áº": 267,
      "er": 268,
      "nd": 269,
      "Ġh": 270,
      "ti": 271,
      "es": 272,
      "Ãł": 273,
      "Ġv": 274,
      "in": 275,
      "al": 276,
      "en": 277,
      "on": 278,
      "Ġl": 279,
      "or": 280,
      "Ġm": 281,
      "Ġp": 282,
      "Ġb": 283,
      "ing": 284,
      "nh": 285,
      "ĠÄ": 286,
      "Ġand": 287,
      "Ã¡": 288,
      "it": 289,
      "an": 290,
      "re": 291,
      "ĠÄĳ": 292,
      "Ġw": 293,
      "ro": 294,
      "Ġf": 295,
      "Ġd": 296,
      "ch": 297,
      "is": 298,
      "ar": 299,
      "Ġg": 300,
      "le": 301,
      "iá»": 302,
      "âĢ": 303,
      "Ġthe": 304,
      "at": 305,
      "ĠvÃł": 306,
      "Æ°": 307,
      "Ġin": 308,
      "Ġo": 309,
      "ic": 310,
      "á»Ļ": 311,
      "ra": 312,
      "Ã³": 313,
      "ĠcÃ¡": 314,
      "Ġn": 315,
      "Ġk": 316,
      "am": 317,
      "ĠcÃ¡c": 318,
      "âĢĳ": 319,
      "Ġto": 320,
      "ed": 321,
      "as": 322,
      "tion": 323,
      "ent": 324,
      "Ġco": 325,
      "Ġe": 326,
      "il": 327,
      "ur": 328,
      "Ġnh": 329,
      "iá»ĩ": 330,
      "Ġch": 331,
      "á»ĳ": 332,
      "Ġtr": 333,
      "Ġof": 334,
      "Ã´": 335,
      "el": 336,
      "et": 337,
      "us": 338,
      "ĠH": 339,
      "ol": 340,
      "ia": 341,
      "áº¡": 342,
      "un": 343,
      "ith": 344,
      "Ġwith": 345,
      "Æ°á»": 346,
      "Ãª": 347,
      "Ġng": 348,
      "ĠS": 349,
      "ÃŃ": 350,
      "ul": 351,
      "áº¿": 352,
      "Ġcom": 353,
      "ity": 354,
      "ĠT": 355,
      "qu": 356,
      "Ġph": 357,
      "áº£": 358,
      "ĠC": 359,
      "ve": 360,
      "Ġre": 361,
      "im": 362,
      "Ġst": 363,
      "á»ĭ": 364,
      "Ġwh": 365,
      "tic": 366,
      "ĥn": 367,
      "ly": 368,
      "uy": 369,
      "ĠA": 370,
      "ĠcÃ³": 371,
      "Ġthá»": 372,
      "rong": 373,
      "Ġkh": 374,
      "ÃŃch": 375,
      "Ġfor": 376,
      "Æ¡": 377,
      "ers": 378,
      "Ġqu": 379,
      "oc": 380,
      "Ġgia": 381,
      "ts": 382,
      "ting": 383,
      "ĠN": 384,
      "Ġvá»": 385,
      "id": 386,
      "ation": 387,
      "he": 388,
      "ĠthÃŃch": 389,
      "Ġher": 390,
      "ĠlÃł": 391,
      "ig": 392,
      "Ġho": 393,
      "Ġhis": 394,
      "ir": 395,
      "á»ķ": 396,
      "ec": 397,
      "Ġex": 398,
      "Ġr": 399,
      "Ã´ng": 400,
      "ĠM": 401,
      "ad": 402,
      "Ġtrong": 403,
      "áºŃ": 404,
      "os": 405,
      "ag": 406,
      "Æ°á»Ŀ": 407,
      "ce": 408,
      "ion": 409,
      "ut": 410,
      "Ġtham": 411,
      "á»ĳng": 412,
      "Ġpro": 413,
      "ĠÄĳá»": 414,
      "Ġcomm": 415,
      "Ã¬": 416,
      "ip": 417,
      "Ľi": 418,
      "ĠB": 419,
      "Ġngh": 420,
      "Å©": 421,
      "Ã¢": 422,
      "á»Ļt": 423,
      "nds": 424,
      "á»Ļi": 425,
      "Ġcommun": 426,
      "Ġy": 427,
      "Ġmá»Ļt": 428,
      "Ġsá»": 429,
      "ess": 430,
      "áº¥": 431,
      "ay": 432,
      "uyá»": 433,
      "Ġhá»": 434,
      "Ġat": 435,
      "em": 436,
      "Ġlá»": 437,
      "ĠcÅ©": 438,
      "Ãªn": 439,
      "Ġx": 440,
      "od": 441,
      "Ġexp": 442,
      "ter": 443,
      "inh": 444,
      "ĠcÅ©ng": 445,
      "ri": 446,
      "ĠnhÆ°": 447,
      "ac": 448,
      "Ġcommunity": 449,
      "ow": 450,
      "tive": 451,
      "ile": 452,
      "ure": 453,
      "ĠL": 454,
      "Ġtra": 455,
      "Ġas": 456,
      "ke": 457,
      "á»Ļng": 458,
      "iáº¿": 459,
      "th": 460,
      "áº§": 461,
      "Ġbu": 462,
      "ģn": 463,
      "Ġen": 464,
      "ain": 465,
      "up": 466,
      "Ġcá»": 467,
      "iá»ĩc": 468,
      "ĠTh": 469,
      "ork": 470,
      "ee": 471,
      "ĠP": 472,
      "Ġthat": 473,
      "á»ķi": 474,
      "te": 475,
      "Ġro": 476,
      "Ġsp": 477,
      "Ġal": 478,
      "Ġthá»ĥ": 479,
      "ab": 480,
      "áº·": 481,
      "to": 482,
      "Äĥ": 483,
      "ard": 484,
      "Ġpl": 485,
      "ate": 486,
      "Ġcon": 487,
      "Ġar": 488,
      "Ġhá»Ļi": 489,
      "Ġwhile": 490,
      "ĠG": 491,
      "Äĥn": 492,
      "Æ°á»Ŀng": 493,
      "Ġviá»ĩc": 494,
      "Ġan": 495,
      "Ġle": 496,
      "uyá»ģn": 497,
      "Ġte": 498,
      "Ġis": 499,
      "ment": 500,
      "ocal": 501,
      "ĠAnh": 502,
      "all": 503,
      "Ġlocal": 504,
      "áº·c": 505,
      "©c": 506,
      "Ġtruyá»ģn": 507,
      "ver": 508,
      "ition": 509,
      "Ġon": 510,
      "Ġne": 511,
      "á»Ł": 512,
      "áº¡i": 513,
      "Ġthá»ĳng": 514,
      "igh": 515,
      "Ãłi": 516,
      "ĠÄĥn": 517,
      "Ã¬nh": 518,
      "iá»ĩt": 519,
      "Ġvá»Ľi": 520,
      "ok": 521,
      "Ġgi": 522,
      "uc": 523,
      "tur": 524,
      "á»¯": 525,
      "Æ°Æ¡": 526,
      "Ġli": 527,
      "Ġlá»ħ": 528,
      "ys": 529,
      "Ġhe": 530,
      "tiv": 531,
      "Ã²": 532,
      "ong": 533,
      "Ġsh": 534,
      "ap": 535,
      "Ġdá»": 536,
      "ish": 537,
      "ily": 538,
      "áº§n": 539,
      "Ġcá»§": 540,
      "Ġcá»§a": 541,
      "jo": 542,
      "âĢĻ": 543,
      "iz": 544,
      "om": 545,
      "Ġcul": 546,
      "ĠÄĳáº·c": 547,
      "áº£n": 548,
      "est": 549,
      "Ġcl": 550,
      "ous": 551,
      "Æ°Æ¡ng": 552,
      "ill": 553,
      "ĠD": 554,
      "Äĥng": 555,
      "Ġor": 556,
      "uá»ĳ": 557,
      "ĠHe": 558,
      "ies": 559,
      "ten": 560,
      "ĠmÃ³": 561,
      "rac": 562,
      "įc": 563,
      "Ġexper": 564,
      "Ãªu": 565,
      "and": 566,
      "Ġwork": 567,
      "Ġfam": 568,
      "Ãłnh": 569,
      "ĠÄĳá»Ļng": 570,
      "ional": 571,
      "ĠV": 572,
      "anc": 573,
      "Ġcomp": 574,
      "pp": 575,
      "Ġbiá»ĩt": 576,
      "Ġnghiá»ĩ": 577,
      "Ġthey": 578,
      "ĠcÃ´ng": 579,
      "ĵng": 580,
      "ug": 581,
      "av": 582,
      "Ã¢n": 583,
      "ĠthÆ°á»Ŀng": 584,
      "ĠmÃ³n": 585,
      "op": 586,
      "ical": 587,
      "for": 588,
      "Ġshe": 589,
      "Ġfamily": 590,
      "ĠShe": 591,
      "Ġthu": 592,
      "ĠR": 593,
      "Ã³a": 594,
      "iá»ĩn": 595,
      "Ġhoáº¡": 596,
      "Ġnghá»": 597,
      "ach": 598,
      "Ġac": 599,
      "ĠyÃªu": 600,
      "Ġlo": 601,
      "Ġpar": 602,
      "ass": 603,
      "ub": 604,
      "tural": 605,
      "Ġchá»": 606,
      "iti": 607,
      "Ġmá»": 608,
      "ĠnÄĥng": 609,
      "ary": 610,
      "±c": 611,
      "st": 612,
      "á»ĭch": 613,
      "Ġsá»±": 614,
      "Ġhá»įc": 615,
      "ĠvÄĥn": 616,
      "ao": 617,
      "ial": 618,
      "ĠkhÃ¡": 619,
      "ĠÄĳá»ĥ": 620,
      "Ġcur": 621,
      "ance": 622,
      "ĠhÃ³a": 623,
      "Ġtheir": 624,
      "áº¿n": 625,
      "ĠbÃ¡": 626,
      "Ġad": 627,
      "á»¯ng": 628,
      "tor": 629,
      "Ġpre": 630,
      "Ġtá»": 631,
      "dition": 632,
      "áºŃt": 633,
      "Ġbuá»ķi": 634,
      "ĠvÃło": 635,
      "Ã¹": 636,
      "ĠphÃ¡": 637,
      "cas": 638,
      "vel": 639,
      "Ġplan": 640,
      "Ġme": 641,
      "Ġble": 642,
      "ugh": 643,
      "so": 644,
      "ractic": 645,
      "ge": 646,
      "Ã³ng": 647,
      "Ġsk": 648,
      "Ġpractic": 649,
      "Ġcre": 650,
      "iá»ĥ": 651,
      "Ġhoáº¡t": 652,
      "ph": 653,
      "Ġra": 654,
      "ative": 655,
      "ine": 656,
      "als": 657,
      "ib": 658,
      "ents": 659,
      "ence": 660,
      "um": 661,
      "Ãłng": 662,
      "tis": 663,
      "ung": 664,
      "Ġnhá»¯ng": 665,
      "Ġbo": 666,
      "age": 667,
      "ant": 668,
      "mer": 669,
      "Anh": 670,
      "ood": 671,
      "ud": 672,
      "uá»ĳn": 673,
      "Ġenjo": 674,
      "áºŃp": 675,
      "out": 676,
      "Æ°á»Ŀi": 677,
      "ks": 678,
      "uyÃªn": 679,
      "áº£i": 680,
      "ħn": 681,
      "Ġapp": 682,
      "ican": 683,
      "fic": 684,
      "Ġtáº¡i": 685,
      "Ġcultural": 686,
      "ĠÄĲ": 687,
      "og": 688,
      "Ġde": 689,
      "á»¹": 690,
      "Æ¡i": 691,
      "king": 692,
      "Ġalso": 693,
      "ning": 694,
      "ĠÄĳá»ĵng": 695,
      "Ġlá»ĭch": 696,
      "ear": 697,
      "anh": 698,
      "ual": 699,
      "Ġtiáº¿": 700,
      "Ġim": 701,
      "ĠK": 702,
      "Ġby": 703,
      "ates": 704,
      "Ġres": 705,
      "ĠNg": 706,
      "ĠlÃ": 707,
      "erv": 708,
      "lor": 709,
      "ĠngÆ°á»Ŀi": 710,
      "Ġá»Ł": 711,
      "Ġnghá»ĩ": 712,
      "Ġwee": 713,
      "ĠbÃ¡nh": 714,
      "uch": 715,
      "ĠW": 716,
      "tain": 717,
      "ĠthuáºŃt": 718,
      "Ġanh": 719,
      "iá»ģ": 720,
      "Ġenjoys": 721,
      "Ġphá»ĳ": 722,
      "ccas": 723,
      "Ġsá»Ń": 724,
      "Ġtradition": 725,
      "Ġká»¹": 726,
      "her": 727,
      "Ġstr": 728,
      "me": 729,
      "ccasional": 730,
      "Ġtu": 731,
      "Ġsm": 732,
      "Ġreg": 733,
      "ind": 734,
      "are": 735,
      "Ġcuri": 736,
      "gan": 737,
      "ĠF": 738,
      "ors": 739,
      "ot": 740,
      "lec": 741,
      "Ġev": 742,
      "und": 743,
      "Ġsá»ĳng": 744,
      "áºŃn": 745,
      "low": 746,
      "Ġoccasional": 747,
      "ities": 748,
      "ide": 749,
      "ĠCÃ´": 750,
      "gra": 751,
      "Ġinto": 752,
      "por": 753,
      "ings": 754,
      "Ġmá»Ľi": 755,
      "Ġbal": 756,
      "Ġart": 757,
      "Ġsuch": 758,
      "ganiz": 759,
      "Ġsol": 760,
      "Ġkinh": 761,
      "Æ°á»£": 762,
      "tin": 763,
      "Ġdá»¥": 764,
      "ĠE": 765,
      "ĠO": 766,
      "ture": 767,
      "able": 768,
      "áº¯": 769,
      "áº¥u": 770,
      "ist": 771,
      "ĠÄĳÃ¡": 772,
      "Ġman": 773,
      "ĠÄĳá»ĭ": 774,
      "Ġmuá»ĳn": 775,
      "ack": 776,
      "ĠbÃ³ng": 777,
      "ĠnhÃł": 778,
      "res": 779,
      "ere": 780,
      "Ġoften": 781,
      "ves": 782,
      "les": 783,
      "osity": 784,
      "Ġdes": 785,
      "ling": 786,
      "Ġup": 787,
      "ry": 788,
      "Ġnghiá»ĩm": 789,
      "rom": 790,
      "ĠlÃ½": 791,
      "Ġcuriosity": 792,
      "Ġhistor": 793,
      "Ġsoc": 794,
      "Ã´n": 795,
      "Ġsch": 796,
      "Ġmod": 797,
      "Ġem": 798,
      "áº©": 799,
      "ang": 800,
      "arden": 801,
      "iÃªn": 802,
      "Ġsen": 803,
      "Ãº": 804,
      "Ġsc": 805,
      "Ġbas": 806,
      "sp": 807,
      "Ġorganiz": 808,
      "ĠÄĳÃ¬nh": 809,
      "Ġwho": 810,
      "ie": 811,
      "ms": 812,
      "ĠBÃł": 813,
      "ations": 814,
      "Ġment": 815,
      "ĠthÃłnh": 816,
      "Ġdu": 817,
      "jec": 818,
      "ory": 819,
      "Ġfrom": 820,
      "ills": 821,
      "ĠPh": 822,
      "ticul": 823,
      "Ġtech": 824,
      "onal": 825,
      "ĠI": 826,
      "Ġquáº£n": 827,
      "Ġgarden": 828,
      "Ġtá»ķ": 829,
      "ĠÄĳáº¿n": 830,
      "ĠlÃłm": 831,
      "Ġse": 832,
      "Ġdá»±": 833,
      "enc": 834,
      "Ġchá»©c": 835,
      "Ġlá»Ľ": 836,
      "Ã¡t": 837,
      "ty": 838,
      "ĠJ": 839,
      "ild": 840,
      "iv": 841,
      "á»Ļc": 842,
      "ast": 843,
      "ays": 844,
      "Ġsmall": 845,
      "ating": 846,
      "Ġlike": 847,
      "Ġcu": 848,
      "Ġso": 849,
      "Ã²n": 850,
      "Ġweeke": 851,
      "ticip": 852,
      "Ġprojec": 853,
      "ĠhÃłng": 854,
      "Ġinter": 855,
      "Ġrel": 856,
      "Ġab": 857,
      "ĠxuyÃªn": 858,
      "urs": 859,
      "Ġparticip": 860,
      "old": 861,
      "eti": 862,
      "Ġwhere": 863,
      "els": 864,
      "Ġpractical": 865,
      "Ġthao": 866,
      "Ŀi": 867,
      "Ġvá»ģ": 868,
      "ai": 869,
      "get": 870,
      "Ġnat": 871,
      "áº¿t": 872,
      "ĠHer": 873,
      "ĠnÆ¡i": 874,
      "ich": 875,
      "ĠkhÃ´ng": 876,
      "ior": 877,
      "ian": 878,
      "Ġmus": 879,
      "ience": 880,
      "Ġclass": 881,
      "rough": 882,
      "Ġcook": 883,
      "ĠCh": 884,
      "ĠThá»ĭ": 885,
      "áº¡o": 886,
      "its": 887,
      "ues": 888,
      "áº¥t": 889,
      "ue": 890,
      "ĠHÃł": 891,
      "Ġquan": 892,
      "iet": 893,
      "Æ°á»Ł": 894,
      "Æ°á»Łng": 895,
      "Ġlove": 896,
      "ĠcÃ´": 897,
      "Ġvol": 898,
      "ips": 899,
      "tions": 900,
      "Ġfol": 901,
      "Ġmain": 902,
      "Ġcho": 903,
      "ĠkhÃ¡m": 904,
      "Ġtechn": 905,
      "iá»ģu": 906,
      "Ġbalanc": 907,
      "ends": 908,
      "ord": 909,
      "Ġkhu": 910,
      "Ġthrough": 911,
      "Ġhas": 912,
      "Ġexplor": 913,
      "Ġlead": 914,
      "unte": 915,
      "Ã¨": 916,
      "Ġgiá»": 917,
      "Ġout": 918,
      "ven": 919,
      "Ã£": 920,
      "Ġcá»Ļng": 921,
      "Ġsa": 922,
      "ool": 923,
      "á»ı": 924,
      "Ġvá»±c": 925,
      "Ġnáº¥u": 926,
      "ire": 927,
      "Ġsup": 928,
      "Ġcol": 929,
      "uring": 930,
      "ak": 931,
      "ft": 932,
      "ff": 933,
      "ater": 934,
      "ĠÄĳá»ĭa": 935,
      "eep": 936,
      "Ġblend": 937,
      "Ġdá»¥ng": 938,
      "Ġatte": 939,
      "Ã¹ng": 940,
      "cl": 941,
      "ans": 942,
      "Ã¢y": 943,
      "ric": 944,
      "ĠHis": 945,
      "Ġvolunte": 946,
      "Ġnghiá»ĩp": 947,
      "ex": 948,
      "áº©m": 949,
      "arly": 950,
      "Ġbud": 951,
      "ĠÃ¡": 952,
      "lo": 953,
      "Ġhim": 954,
      "Ġthá»©c": 955,
      "ign": 956,
      "Ġtuá»ķi": 957,
      "Ġstrong": 958,
      "Ġrec": 959,
      "iá»ĥu": 960,
      "ĠtáºŃp": 961,
      "ands": 962,
      "ational": 963,
      "oun": 964,
      "Ġexperim": 965,
      "iá»ĥn": 966,
      "âĢĶ": 967,
      "ĠNá»Ļi": 968,
      "enter": 969,
      "Ġseas": 970,
      "Ġvis": 971,
      "Ġmanag": 972,
      "iáº¿t": 973,
      "ticulous": 974,
      "Ġmeticulous": 975,
      "ice": 976,
      "ream": 977,
      "ient": 978,
      "Ġthá»Ŀi": 979,
      "Æ°á»£c": 980,
      "Ġus": 981,
      "Ġactiv": 982,
      "uyá»ħn": 983,
      "ball": 984,
      "ĠbÃł": 985,
      "Ġhome": 986,
      "áº»": 987,
      "ree": 988,
      "Ġkháº£": 989,
      "ĠÄĳi": 990,
      "ew": 991,
      "áº¡n": 992,
      "pec": 993,
      "áº¥n": 994,
      "ble": 995,
      "Ġteam": 996,
      "hip": 997,
      "ĠhÃ¡t": 998,
      "Ġgro": 999,
      "Ġskills": 1000,
      "ĠÄĳÆ°á»£c": 1001,
      "Ġlif": 1002,
      "Ġlá»Ľn": 1003,
      "iá»ĥm": 1004,
      "Æ°á»Ľ": 1005,
      "Ġop": 1006,
      "Ġjo": 1007,
      "Ġblends": 1008,
      "ility": 1009,
      "Ġnew": 1010,
      "Ġj": 1011,
      "wn": 1012,
      "Ġref": 1013,
      "Ã¬m": 1014,
      "ĠphÆ°Æ¡ng": 1015,
      "Ġdis": 1016,
      "Ġweekend": 1017,
      "Ġpref": 1018,
      "lin": 1019,
      "merican": 1020,
      "Ġcont": 1021,
      "ĠtÃ¬m": 1022,
      "Ġpers": 1023,
      "imp": 1024,
      "Ġtraditional": 1025,
      "ering": 1026,
      "Ġprojects": 1027,
      "led": 1028,
      "ep": 1029,
      "ving": 1030,
      "ĠÄĳiá»ĥm": 1031,
      "Ġserv": 1032,
      "ite": 1033,
      "áº§u": 1034,
      "Ġnature": 1035,
      "ement": 1036,
      "Ġval": 1037,
      "iá»ħn": 1038,
      "Ġread": 1039,
      "Ġbe": 1040,
      "Ġkiá»ĩn": 1041,
      "Ġgiá»¯": 1042,
      "Ġgian": 1043,
      "Ġcompeti": 1044,
      "Ġmaintain": 1045,
      "li": 1046,
      "Ġtrips": 1047,
      "ishes": 1048,
      "Ġthá»±c": 1049,
      "ose": 1050,
      "Ġper": 1051,
      "Ġdiá»ħn": 1052,
      "Ġtá»ĳ": 1053,
      "form": 1054,
      "ont": 1055,
      "ĠcÃ¡ch": 1056,
      "air": 1057,
      "Ġcooking": 1058,
      "ions": 1059,
      "eth": 1060,
      "Ġartis": 1061,
      "Ġadv": 1062,
      "atch": 1063,
      "ets": 1064,
      "ful": 1065,
      "Ġlu": 1066,
      "Ġover": 1067,
      "Ġdri": 1068,
      "áº£o": 1069,
      "Ġsenior": 1070,
      "ĠcÆ¡": 1071,
      "ĠSout": 1072,
      "ann": 1073,
      "ĠNam": 1074,
      "Ġmodest": 1075,
      "ĠÄĲá»": 1076,
      "Ġhi": 1077,
      "Tr": 1078,
      "Ãły": 1079,
      "Ġreflec": 1080,
      "ĠGÃ²n": 1081,
      "ĠSÃłi": 1082,
      "Ġmentor": 1083,
      "ames": 1084,
      "Ġcreative": 1085,
      "Ġsinh": 1086,
      "Ã´i": 1087,
      "Ġquen": 1088,
      "Äĥm": 1089,
      "Æ¡n": 1090,
      "Ġcan": 1091,
      "Ġind": 1092,
      "Ġtá»«": 1093,
      "Ġtim": 1094,
      "ons": 1095,
      "Ġmusic": 1096,
      "Ġoccasionally": 1097,
      "Ä©": 1098,
      "estiv": 1099,
      "ĠluÃ´n": 1100,
      "ick": 1101,
      "ital": 1102,
      "ÃŃnh": 1103,
      "Ġactivities": 1104,
      "Ph": 1105,
      "oto": 1106,
      "Ġcra": 1107,
      "Ġmo": 1108,
      "Ng": 1109,
      "end": 1110,
      "enti": 1111,
      "ring": 1112,
      "Ġed": 1113,
      "ark": 1114,
      "Ġprogra": 1115,
      "itage": 1116,
      "ather": 1117,
      "Ã²ng": 1118,
      "ness": 1119,
      "Ġmong": 1120,
      "Ġass": 1121,
      "Ġrou": 1122,
      "Ġenv": 1123,
      "ight": 1124,
      "Ġnhá»ı": 1125,
      "Ġplay": 1126,
      "ĠVÄĥn": 1127,
      "Ġinsp": 1128,
      "'s": 1129,
      "Ġdream": 1130,
      "ims": 1131,
      "Ġbá»Ļ": 1132,
      "Ġschool": 1133,
      "ell": 1134,
      "work": 1135,
      "Ġstruc": 1136,
      "ort": 1137,
      "Ġsocial": 1138,
      "Ġregul": 1139,
      "Ġheritage": 1140,
      "ust": 1141,
      "Ġroutin": 1142,
      "ane": 1143,
      "ighb": 1144,
      "Ġneighb": 1145,
      "ĠmÃ¬nh": 1146,
      "Ġworks": 1147,
      "Ġcompetitive": 1148,
      "Ġdesign": 1149,
      "Ġeng": 1150,
      "Ġkiáº¿": 1151,
      "lex": 1152,
      "Ġbuild": 1153,
      "Ġshap": 1154,
      "Ġcáº§u": 1155,
      "Ġimp": 1156,
      "Ġvalues": 1157,
      "ights": 1158,
      "ive": 1159,
      "Ġplans": 1160,
      "Ã¡ng": 1161,
      "Ġfri": 1162,
      "by": 1163,
      "elf": 1164,
      "Ġgre": 1165,
      "ĠY": 1166,
      "Ġdishes": 1167,
      "Ġboth": 1168,
      "ĠmÃª": 1169,
      "urn": 1170,
      "vid": 1171,
      "ethod": 1172,
      "Ġfl": 1173,
      "Ã¢m": 1174,
      "lic": 1175,
      "Ġdo": 1176,
      "Ġusing": 1177,
      "Ġaims": 1178,
      "Ġpersonal": 1179,
      "tern": 1180,
      "Ġclub": 1181,
      "Ġbasic": 1182,
      "Ġfestiv": 1183,
      "Ġtá»ĳt": 1184,
      "use": 1185,
      "ĠdÃłi": 1186,
      "Ġstre": 1187,
      "Ġevents": 1188,
      "Ġcare": 1189,
      "Ġkn": 1190,
      "Ġváº": 1191,
      "âĢ¯": 1192,
      "á»ĳi": 1193,
      "velop": 1194,
      "urch": 1195,
      "Ġincl": 1196,
      "Ġquiet": 1197,
      "Ġsáº£n": 1198,
      "Ġtráº»": 1199,
      "Ġexc": 1200,
      "Ġmethod": 1201,
      "ĠÄĳáº¡i": 1202,
      "Ġgather": 1203,
      "ris": 1204,
      "ress": 1205,
      "Ġche": 1206,
      "Ġclassic": 1207,
      "iá»ĩu": 1208,
      "ĠnhÆ°ng": 1209,
      "ton": 1210,
      "Ġplanning": 1211,
      "Ġsuppor": 1212,
      "ĠNh": 1213,
      "resh": 1214,
      "uá»ĳi": 1215,
      "zz": 1216,
      "eta": 1217,
      "Ġattend": 1218,
      "ĠÄĳam": 1219,
      "ese": 1220,
      "arm": 1221,
      "elp": 1222,
      "áº¡c": 1223,
      "Ġtime": 1224,
      "Ġdevelop": 1225,
      "ĠTr": 1226,
      "ough": 1227,
      "inds": 1228,
      "Ġstructure": 1229,
      "oa": 1230,
      "ĠmÃ¡": 1231,
      "Ġcenter": 1232,
      "Ġhigh": 1233,
      "ration": 1234,
      "Tráº§n": 1235,
      "Ġcuá»ĳi": 1236,
      "Ġback": 1237,
      "Ġstory": 1238,
      "Ġchurch": 1239,
      "ĠHáº£i": 1240,
      "ĠnhÃ¢n": 1241,
      "used": 1242,
      "ĠMex": 1243,
      "Ġpos": 1244,
      "Ġyet": 1245,
      "lows": 1246,
      "hop": 1247,
      "Ġtriá»ĥn": 1248,
      "ber": 1249,
      "ĠNew": 1250,
      "year": 1251,
      "Ġgatherings": 1252,
      "Ġfo": 1253,
      "Ġhelp": 1254,
      "Ġdra": 1255,
      "Ġhiá»ĩn": 1256,
      "á»ĭp": 1257,
      "Ġtáº¡o": 1258,
      "Ġdel": 1259,
      "ĠgiÃ¡": 1260,
      "Ġfestivals": 1261,
      "Ġimm": 1262,
      "ĠdÃ¢n": 1263,
      "iver": 1264,
      "Ġexperience": 1265,
      "lish": 1266,
      "«n": 1267,
      "Ġcá»ķ": 1268,
      "ated": 1269,
      "ments": 1270,
      "tise": 1271,
      "Ġtraditions": 1272,
      "rec": 1273,
      "Ġwhich": 1274,
      "Ġexpertise": 1275,
      "alth": 1276,
      "Ġparticipates": 1277,
      "Ġservice": 1278,
      "Ġtrá»": 1279,
      "wing": 1280,
      "rant": 1281,
      "aking": 1282,
      "duc": 1283,
      "ata": 1284,
      "Æ°á»Ľc": 1285,
      "ld": 1286,
      "isten": 1287,
      "hern": 1288,
      "ene": 1289,
      "ĠmÃ¬": 1290,
      "roach": 1291,
      "Ġlever": 1292,
      "Ġtá»±": 1293,
      "io": 1294,
      "Ġlife": 1295,
      "Ġartistic": 1296,
      "Ġyear": 1297,
      "Ã¡n": 1298,
      "Ġmá»Ł": 1299,
      "Ġfresh": 1300,
      "leb": 1301,
      "Ġtuáº§n": 1302,
      "ĠmÃ¡y": 1303,
      "round": 1304,
      "Ġkáº¿t": 1305,
      "ences": 1306,
      "Ġdisc": 1307,
      "Ġcao": 1308,
      "erti": 1309,
      "kes": 1310,
      "Ġhistoric": 1311,
      "Ġphoto": 1312,
      "ĠphÃ¡t": 1313,
      "Ġhá»ĩ": 1314,
      "Ġtiáº¿ng": 1315,
      "Ġbook": 1316,
      "ĠSouthern": 1317,
      "Ġneighbor": 1318,
      "Ġbáº£n": 1319,
      "olog": 1320,
      "Ġkáº¿": 1321,
      "áº±": 1322,
      "Ġinv": 1323,
      "Ġapproach": 1324,
      "par": 1325,
      "elling": 1326,
      "bo": 1327,
      "Ġlisten": 1328,
      "Ġwal": 1329,
      "Ã³m": 1330,
      "Ġxem": 1331,
      "ĠtÃłi": 1332,
      "Ġeduc": 1333,
      "iation": 1334,
      "Ġnear": 1335,
      "Ġváº¥n": 1336,
      "own": 1337,
      "Ġrole": 1338,
      "ey": 1339,
      "Ġprefers": 1340,
      "Ġdata": 1341,
      "ĠSp": 1342,
      "ural": 1343,
      "ake": 1344,
      "ĠthÆ°á»Łng": 1345,
      "dri": 1346,
      "Nguyá»ħn": 1347,
      "ĠMexican": 1348,
      "hood": 1349,
      "ĠCoun": 1350,
      "ines": 1351,
      "ently": 1352,
      "Ġapprec": 1353,
      "Ġtravel": 1354,
      "Ġanal": 1355,
      "Ġsched": 1356,
      "Ġthiáº¿t": 1357,
      "Ġfriends": 1358,
      "ining": 1359,
      "graph": 1360,
      "ontane": 1361,
      "Ġce": 1362,
      "Ġfe": 1363,
      "ĠMinh": 1364,
      "Ġdá»±ng": 1365,
      "ely": 1366,
      "á»ĵ": 1367,
      "Ġspontane": 1368,
      "ĠThe": 1369,
      "cer": 1370,
      "str": 1371,
      "Ġgroup": 1372,
      "Ġmanagement": 1373,
      "Ġtrans": 1374,
      "Ġmethodical": 1375,
      "ax": 1376,
      "ordin": 1377,
      "man": 1378,
      "Ġfre": 1379,
      "Ġduring": 1380,
      "ĠtÃŃch": 1381,
      "áº£nh": 1382,
      "ages": 1383,
      "Ã¢u": 1384,
      "Ġceleb": 1385,
      "Ġare": 1386,
      "ivers": 1387,
      "ah": 1388,
      "Ġspends": 1389,
      "áº±ng": 1390,
      "Ġstud": 1391,
      "phas": 1392,
      "áº¡m": 1393,
      "driven": 1394,
      "Ġseason": 1395,
      "ĠÄĳÃ£": 1396,
      "ots": 1397,
      "oÃłi": 1398,
      "ss": 1399,
      "ens": 1400,
      "Ġnhiá»ģu": 1401,
      "Ä©nh": 1402,
      "Ġemphas": 1403,
      "ĠxÃ¢y": 1404,
      "Ġstoryt": 1405,
      "ĠlÃªn": 1406,
      "Ġgames": 1407,
      "Ġsolit": 1408,
      "ner": 1409,
      "Ġáº©m": 1410,
      "Ġphá»": 1411,
      "land": 1412,
      "pl": 1413,
      "ĠviÃªn": 1414,
      "Ġlow": 1415,
      "Ġcoordin": 1416,
      "Ġgiao": 1417,
      "ĠlÃłng": 1418,
      "iron": 1419,
      "Ã¨o": 1420,
      "Ġphotograph": 1421,
      "iá»ģm": 1422,
      "ging": 1423,
      "Ġset": 1424,
      "enting": 1425,
      "Ġroutine": 1426,
      "ĠAmerican": 1427,
      "Ġbl": 1428,
      "Ch": 1429,
      "Ġtrail": 1430,
      "ĠSt": 1431,
      "Ġroad": 1432,
      "Ġdig": 1433,
      "Ġdoanh": 1434,
      "ener": 1435,
      "Ġhealth": 1436,
      "Ġfin": 1437,
      "Ġpurs": 1438,
      "Ġwithin": 1439,
      "Ġhands": 1440,
      "iness": 1441,
      "Ġspontaneous": 1442,
      "ĠkhÃ¡c": 1443,
      "ath": 1444,
      "Ġniá»ģm": 1445,
      "ativ": 1446,
      "tics": 1447,
      "Ġyears": 1448,
      "ins": 1449,
      "Ġtrung": 1450,
      "Ġdigital": 1451,
      "Ġkeep": 1452,
      "ĠlÃ´ng": 1453,
      "ĠngÃły": 1454,
      "Ġenviron": 1455,
      "ficient": 1456,
      "oga": 1457,
      "ĠQ": 1458,
      "Ġshow": 1459,
      "yle": 1460,
      "ash": 1461,
      "ĠEng": 1462,
      "Ġworkshop": 1463,
      "¥c": 1464,
      "įng": 1465,
      "ll": 1466,
      "ĠAd": 1467,
      "Ġtiáº¿u": 1468,
      "au": 1469,
      "ĠlÄ©nh": 1470,
      "Ġcuá»Ļc": 1471,
      "usiness": 1472,
      "Ġhá»§": 1473,
      "Ġgiá»¯a": 1474,
      "Ġcar": 1475,
      "Ġbiá»ĥu": 1476,
      "Ġdi": 1477,
      "Ġinclud": 1478,
      "ĠhÃłnh": 1479,
      "usto": 1480,
      "Ġneighborhood": 1481,
      "Ġhop": 1482,
      "Ġfolk": 1483,
      "Ġperform": 1484,
      "Ġpres": 1485,
      "ma": 1486,
      "Ġsá»Ł": 1487,
      "ix": 1488,
      "ĠsÃ¡ng": 1489,
      "Ġnearby": 1490,
      "Æ°á»£ng": 1491,
      "Ġbalances": 1492,
      "Ġsimp": 1493,
      "áº¹": 1494,
      "Ġmed": 1495,
      "vement": 1496,
      "Ġarts": 1497,
      "Ġun": 1498,
      "Ġdeep": 1499,
      "assion": 1500,
      "Ġmem": 1501,
      "Ġcomfor": 1502,
      "Ġsimple": 1503,
      "á»¯a": 1504,
      "Ġgra": 1505,
      "Ġcommunic": 1506,
      "Ġváº«n": 1507,
      "Ġabout": 1508,
      "Ã©": 1509,
      "Ġpe": 1510,
      "red": 1511,
      "etch": 1512,
      "tim": 1513,
      "Ġyoga": 1514,
      "Ġhoa": 1515,
      "Ġchann": 1516,
      "co": 1517,
      "iling": 1518,
      "ĠchÆ¡i": 1519,
      "ĠcÄĥn": 1520,
      "Ġno": 1521,
      "lexib": 1522,
      "Ġcusto": 1523,
      "ĠÃ´ng": 1524,
      "Ġgu": 1525,
      "Ġpractices": 1526,
      "Ġent": 1527,
      "Ġcoll": 1528,
      "ĠÃ¡o": 1529,
      "Ġwater": 1530,
      "avor": 1531,
      "ĠCounty": 1532,
      "Ġdec": 1533,
      "ilities": 1534,
      "tical": 1535,
      "bs": 1536,
      "Ġflexib": 1537,
      "ĠnÃ´ng": 1538,
      "Ġweek": 1539,
      "Ġprogram": 1540,
      "Ġstorytelling": 1541,
      "Ġam": 1542,
      "ateg": 1543,
      "Ãºp": 1544,
      "Ġgrew": 1545,
      "Ġinf": 1546,
      "Ã²a": 1547,
      "Ġchá»£": 1548,
      "Ġsketch": 1549,
      "ĠgiÃºp": 1550,
      "Ġvolunteers": 1551,
      "Ġself": 1552,
      "Ġvib": 1553,
      "Ġwor": 1554,
      "ĠTra": 1555,
      "ore": 1556,
      "ĠÄĳiá»ģu": 1557,
      "alm": 1558,
      "Ġbr": 1559,
      "ĠThanh": 1560,
      "ĠViá»ĩt": 1561,
      "fess": 1562,
      "ols": 1563,
      "Ġbalancing": 1564,
      "Ġfut": 1565,
      "Ġbudget": 1566,
      "ace": 1567,
      "Ġcle": 1568,
      "Ġproduc": 1569,
      "Ġstrateg": 1570,
      "ome": 1571,
      "cis": 1572,
      "ding": 1573,
      "£p": 1574,
      "Ġsolitary": 1575,
      "Ġfood": 1576,
      "Ġcons": 1577,
      "identi": 1578,
      "ĠLan": 1579,
      "iplin": 1580,
      "Ġappreciation": 1581,
      "Ġcáº£i": 1582,
      "se": 1583,
      "Ġhá»£p": 1584,
      "Ġoper": 1585,
      "tr": 1586,
      "Ġfuture": 1587,
      "Ġráº¥t": 1588,
      "Ġexcels": 1589,
      "Ġhopes": 1590,
      "Ġhiá»ĥu": 1591,
      "abor": 1592,
      "Ġimmers": 1593,
      "Ġbá»ĭ": 1594,
      "ency": 1595,
      "ĠTP": 1596,
      "Ġbuilding": 1597,
      "CÃ´": 1598,
      "cap": 1599,
      "Ġbáº±ng": 1600,
      "ĠtrÃ¬nh": 1601,
      "ator": 1602,
      "Ġasp": 1603,
      "Ġcomfort": 1604,
      "Ġmeals": 1605,
      "ĠchÃŃnh": 1606,
      "Ġregularly": 1607,
      "liance": 1608,
      "Ġkiáº¿m": 1609,
      "Ġearly": 1610,
      "fessional": 1611,
      "arn": 1612,
      "Ġvá»¥": 1613,
      "Ġloves": 1614,
      "ĠPhÃ²ng": 1615,
      "ised": 1616,
      "Ġvisual": 1617,
      "Ġpain": 1618,
      "Ġbec": 1619,
      "Ġnghá»ģ": 1620,
      "Ġorganized": 1621,
      "Ġfrequ": 1622,
      "Ġimpro": 1623,
      "ĠMid": 1624,
      "Ġregional": 1625,
      "Ġdá»¥c": 1626,
      "BÃł": 1627,
      "ĠU": 1628,
      "áº¥y": 1629,
      "Ġvibrant": 1630,
      "Ġháº¡n": 1631,
      "ĠnÆ°á»Ľc": 1632,
      "ards": 1633,
      "Ġconf": 1634,
      "ocused": 1635,
      "Ġstructured": 1636,
      "ĠLong": 1637,
      "Ġlistening": 1638,
      "Ġavid": 1639,
      "Ġfollows": 1640,
      "yst": 1641,
      "Ãłn": 1642,
      "yth": 1643,
      "Ġcoun": 1644,
      "ĠKh": 1645,
      "Ġngáº¯": 1646,
      "Ġ(": 1647,
      "Ġla": 1648,
      "ato": 1649,
      "akes": 1650,
      "xt": 1651,
      "Ġná»ķi": 1652,
      "Ġtechnolog": 1653,
      "Ġhikes": 1654,
      "Ã³c": 1655,
      "Ġcerti": 1656,
      "Ġve": 1657,
      "ales": 1658,
      "Ġbáº£o": 1659,
      "do": 1660,
      "Ġroots": 1661,
      "iá»ģn": 1662,
      "Ġreading": 1663,
      "Ġattending": 1664,
      "Ġcomb": 1665,
      "ilingual": 1666,
      "Ġbáº¡n": 1667,
      "ĠÄĳiá»ĩn": 1668,
      "Ġquy": 1669,
      "ĠhÃ²a": 1670,
      "anish": 1671,
      "ĠHÆ°Æ¡ng": 1672,
      "áº£m": 1673,
      "Ġreti": 1674,
      "ĠIn": 1675,
      "Ġaf": 1676,
      "ally": 1677,
      "Ġsaf": 1678,
      "Ġvolunteer": 1679,
      "line": 1680,
      "col": 1681,
      "Ġbusiness": 1682,
      "Ġcraf": 1683,
      "Ġproc": 1684,
      "avors": 1685,
      "int": 1686,
      "Ġdeta": 1687,
      "Ġes": 1688,
      "Ġenvironment": 1689,
      "Ġengine": 1690,
      "tures": 1691,
      "Ġhistorical": 1692,
      "ĠÄĳang": 1693,
      "Ġstay": 1694,
      "Ġcua": 1695,
      "ĠkhÃ¡ch": 1696,
      "Ġtáº¿": 1697,
      "áº£ng": 1698,
      "time": 1699,
      "iable": 1700,
      "ances": 1701,
      "orn": 1702,
      "Ġshar": 1703,
      "Ġnext": 1704,
      "ired": 1705,
      "Ġdá»ĭp": 1706,
      "ially": 1707,
      "LÃª": 1708,
      "Ġwood": 1709,
      "geting": 1710,
      "ĩn": 1711,
      "ĠtrÃ¬": 1712,
      "ĠCl": 1713,
      "Ġworkshops": 1714,
      "ĠtÃ¢m": 1715,
      "ĠNguyá»ħn": 1716,
      "Ġalong": 1717,
      "Ġfit": 1718,
      "ĠThÃłnh": 1719,
      "ades": 1720,
      "act": 1721,
      "Ġcontem": 1722,
      "Ġhand": 1723,
      "Ġrá»Ļng": 1724,
      "Ġkhi": 1725,
      "áº¥p": 1726,
      "Ġall": 1727,
      "Ġaspir": 1728,
      "ĠÄĳá»ĭnh": 1729,
      "fi": 1730,
      "Ġbilingual": 1731,
      "Ġtre": 1732,
      "ĠÃ¡n": 1733,
      "oung": 1734,
      "á»Ľi": 1735,
      "ĠBl": 1736,
      "Ġidenti": 1737,
      "Ġproble": 1738,
      "ĠSpanish": 1739,
      "ĠAn": 1740,
      "ĠtráºŃn": 1741,
      "Ġmul": 1742,
      "Ġtrá»ĭ": 1743,
      "ect": 1744,
      "Ġnháº¡c": 1745,
      "Ġattends": 1746,
      "Æ°á»Ŀn": 1747,
      "Pháº¡m": 1748,
      "porary": 1749,
      "Ġdreams": 1750,
      "iter": 1751,
      "Ġevent": 1752,
      "Ã³i": 1753,
      "Ġseasonal": 1754,
      "ket": 1755,
      "Ġcuá»ĳn": 1756,
      "ĠAr": 1757,
      "ague": 1758,
      "Ġsá»Ńa": 1759,
      "struc": 1760,
      "ıi": 1761,
      "Ġallow": 1762,
      "Ġmid": 1763,
      "Ġdivers": 1764,
      "pect": 1765,
      "Ġeven": 1766,
      "Ġcap": 1767,
      "Ġexperimenting": 1768,
      "ĠÄĳa": 1769,
      "Ġthá»ĭ": 1770,
      "Ġprofessional": 1771,
      "lu": 1772,
      "Ġqua": 1773,
      "ety": 1774,
      "Ġsoft": 1775,
      "Ġcontemporary": 1776,
      "ley": 1777,
      "Ġculture": 1778,
      "Ġbá»": 1779,
      "ross": 1780,
      "ĠCáº§n": 1781,
      "Ġtrails": 1782,
      "Ġbalance": 1783,
      "ÃĶ": 1784,
      "ĠThÆ¡": 1785,
      "Ġrelax": 1786,
      "ÃĶng": 1787,
      "uá»": 1788,
      "Ġrecip": 1789,
      "Ġprepar": 1790,
      "Ġbudgeting": 1791,
      "ĠtrÆ°á»Ŀng": 1792,
      "ĠsÃ´i": 1793,
      "Ġyoung": 1794,
      "Ġaut": 1795,
      "ĠcÃ²n": 1796,
      "oth": 1797,
      "Ġcommunication": 1798,
      "American": 1799,
      "aving": 1800,
      "ĠÄĳÆ°á»Ŀng": 1801,
      "ĠchÄĥm": 1802,
      "inary": 1803,
      "Ġeducation": 1804,
      "Ġweekly": 1805,
      "Ġtw": 1806,
      "Ġemphasiz": 1807,
      "tional": 1808,
      "min": 1809,
      "Ãµ": 1810,
      "Ġtiá»ĩc": 1811,
      "ĠtrÃªn": 1812,
      "estern": 1813,
      "Ġspec": 1814,
      "ĠMidw": 1815,
      "Ġsoccer": 1816,
      "read": 1817,
      "Ġadvent": 1818,
      "hold": 1819,
      "Ġdoc": 1820,
      "Ġphá»Ł": 1821,
      "Ġsess": 1822,
      "Ġactive": 1823,
      "Ġtiáº¿p": 1824,
      "Ġmaintaining": 1825,
      "Ġmentors": 1826,
      "ĠNgoÃłi": 1827,
      "Æ°u": 1828,
      "ĠkhÃŃ": 1829,
      "ame": 1830,
      "Ġchá»¯a": 1831,
      "ishing": 1832,
      "Ġsec": 1833,
      "ĠnÄĥm": 1834,
      "ern": 1835,
      "Ġhouse": 1836,
      "Ġsolid": 1837,
      "Ġlong": 1838,
      "ward": 1839,
      "Ġproficient": 1840,
      "Ġwas": 1841,
      "Ġemer": 1842,
      "Ã¡i": 1843,
      "Ġteach": 1844,
      "Ġexploring": 1845,
      "Ġdem": 1846,
      "Ġregion": 1847,
      "Ġthá»Ń": 1848,
      "Ġsupport": 1849,
      "Ġleverages": 1850,
      "Ġpursu": 1851,
      "irit": 1852,
      "pecially": 1853,
      "Ġconn": 1854,
      "Ġvá»ĭ": 1855,
      "ĠÄĳáº¥u": 1856,
      "ĠTrung": 1857,
      "ĠsÃ³c": 1858,
      "Ġbiáº¿t": 1859,
      "Ġcertific": 1860,
      "Ġhab": 1861,
      "Ġseasoned": 1862,
      "Vá»Ľi": 1863,
      "Ġculinary": 1864,
      "ures": 1865,
      "Ġfos": 1866,
      "Ġphotography": 1867,
      "ade": 1868,
      "ĠRiver": 1869,
      "Ġtechnical": 1870,
      "Ġdisciplin": 1871,
      "Ġveget": 1872,
      "ean": 1873,
      "Ġdisciplined": 1874,
      "Ġda": 1875,
      "ringing": 1876,
      "Ġfeat": 1877,
      "ĠtáºŃn": 1878,
      "Ġáº¥y": 1879,
      "Ġupb": 1880,
      "amp": 1881,
      "Ġproblem": 1882,
      "nit": 1883,
      "ren": 1884,
      "mes": 1885,
      "Ġcalm": 1886,
      "Ġmiá»ģn": 1887,
      "ĠcÃ¹ng": 1888,
      "Ã¡c": 1889,
      "Ġtrá»Ł": 1890,
      "Ġrep": 1891,
      "ĠEnglish": 1892,
      "gr": 1893,
      "Ġspirit": 1894,
      "Ġsafety": 1895,
      "we": 1896,
      "ystem": 1897,
      "Ġinflu": 1898,
      "á»ĳc": 1899,
      "Ãªm": 1900,
      "Ġoutdo": 1901,
      "Ġsus": 1902,
      "Ġtools": 1903,
      "ership": 1904,
      "Ġduy": 1905,
      "Ġrespect": 1906,
      "ĠWh": 1907,
      "Ġlá»Ľp": 1908,
      "Ġacc": 1909,
      "ĠÄĲá»©c": 1910,
      "Ġhoáº¡ch": 1911,
      "Ġraised": 1912,
      "Ġnovel": 1913,
      "ĠbÃ¨": 1914,
      "usi": 1915,
      "ov": 1916,
      "term": 1917,
      "Ġprefer": 1918,
      "Ġ3": 1919,
      "Ġshort": 1920,
      "ually": 1921,
      "Ġcollec": 1922,
      "Ġbro": 1923,
      "Ġwhite": 1924,
      "Ġabilities": 1925,
      "Ġ1": 1926,
      "Ġexperiments": 1927,
      "husi": 1928,
      "ta": 1929,
      "Ġown": 1930,
      "Ġxu": 1931,
      "ĠLinh": 1932,
      "Ġimag": 1933,
      "Ġcollabor": 1934,
      "rag": 1935,
      "Ġtown": 1936,
      "Ġsessions": 1937,
      "Ġdaily": 1938,
      "uáº¥n": 1939,
      "Ġminds": 1940,
      "áº¯c": 1941,
      "Ġfoster": 1942,
      "Ġmindset": 1943,
      "ws": 1944,
      "outh": 1945,
      "Ġrecipes": 1946,
      "Ġwatercol": 1947,
      "aster": 1948,
      "Ġinspi": 1949,
      "Ġproject": 1950,
      "Ġ2": 1951,
      "ĠthÃ³i": 1952,
      "Ġexperi": 1953,
      "Ġgáº§n": 1954,
      "Ġoff": 1955,
      "Ġhá»ıi": 1956,
      "acy": 1957,
      "olving": 1958,
      "Ġdiverse": 1959,
      "Ġamb": 1960,
      "Ġenthusi": 1961,
      "Ġpo": 1962,
      "very": 1963,
      "Ġprecis": 1964,
      "Ġdecades": 1965,
      "ways": 1966,
      "Ġá»ķ": 1967,
      "Ġlands": 1968,
      "uyá»ĩn": 1969,
      "Ġhistory": 1970,
      "Ġá»ķn": 1971,
      "Ġpháº§n": 1972,
      "Ġclose": 1973,
      "Ġupbringing": 1974,
      "arning": 1975,
      "Ġpot": 1976,
      "ĠváºŃn": 1977,
      "forms": 1978,
      "Ġtin": 1979,
      "Ġleague": 1980,
      "Ġknow": 1981,
      "Ġinspiration": 1982,
      "Ġint": 1983,
      "ert": 1984,
      "Ġsá»©c": 1985,
      "iety": 1986,
      "Ġlandscap": 1987,
      "Ġens": 1988,
      "oh": 1989,
      "Ġwell": 1990,
      "art": 1991,
      "áº¥m": 1992,
      "ale": 1993,
      "Ġhy": 1994,
      "Ġtro": 1995,
      "Ġplays": 1996,
      "ept": 1997,
      "Ġwalks": 1998,
      "Ńa": 1999,
      "Ġsystem": 2000,
      "Ġopen": 2001,
      "azz": 2002,
      "ĠnháºŃp": 2003,
      "ĠTáº¿t": 2004,
      "ĠHá»ĵ": 2005,
      "Ġinte": 2006,
      "Ġweekends": 2007,
      "que": 2008,
      "Ġgiáº£i": 2009,
      "ave": 2010,
      "Ġhá»Ļ": 2011,
      "iáº¿u": 2012,
      "Ġadept": 2013,
      "atching": 2014,
      "Ġchannels": 2015,
      "eld": 2016,
      "airs": 2017,
      "Ġvá»įng": 2018,
      "Æ°á»Ľng": 2019,
      "ĠTuáº¥n": 2020,
      "ancial": 2021,
      "Ġfrequently": 2022,
      "itch": 2023,
      "ĠxÃ³m": 2024,
      "Ġpháº©m": 2025,
      "Ġhiá»ĩu": 2026,
      "unch": 2027,
      "enn": 2028,
      "esses": 2029,
      "Ġsustain": 2030,
      "ĠthÃ¢n": 2031,
      "ories": 2032,
      "Ġscience": 2033,
      "Ġespecially": 2034,
      "Ġtinh": 2035,
      "aller": 2036,
      "Ġemerging": 2037,
      "Ġbut": 2038,
      "Ġthem": 2039,
      "ille": 2040,
      "Ġkhá»ı": 2041,
      "Ġhá»į": 2042,
      "Ġcá»Ńa": 2043,
      "Ġnatural": 2044,
      "Ġpr": 2045,
      "working": 2046,
      "Ġeach": 2047,
      "ban": 2048,
      "ĠsÆ°": 2049,
      "illed": 2050,
      "ĠCo": 2051,
      "Ġfitness": 2052,
      "az": 2053,
      "Ġins": 2054,
      "ĠClub": 2055,
      "ĠvÆ°á»Ŀn": 2056,
      "Ġhousehold": 2057,
      "go": 2058,
      "itions": 2059,
      "Ġcomple": 2060,
      "Ġemp": 2061,
      "Ġpainting": 2062,
      "ketball": 2063,
      "Sá»ĳng": 2064,
      "uts": 2065,
      "Ġide": 2066,
      "ĠMai": 2067,
      "Ġfu": 2068,
      "idge": 2069,
      "Ġprograms": 2070,
      "Ġkhá»ıe": 2071,
      "Ġliter": 2072,
      "uyáº¿n": 2073,
      "Ġthough": 2074,
      "Ġinvol": 2075,
      "vers": 2076,
      "Ġ4": 2077,
      "erg": 2078,
      "Ġpart": 2079,
      "earch": 2080,
      "Ġfinancial": 2081,
      "Ġcáº¥p": 2082,
      "Ġinspired": 2083,
      "du": 2084,
      "ming": 2085,
      "Ġfree": 2086,
      "fr": 2087,
      "solving": 2088,
      "iss": 2089,
      "Ġpub": 2090,
      "Ġbooks": 2091,
      "oked": 2092,
      "aging": 2093,
      "ĠÄĲá»ĵng": 2094,
      "ĠmÃł": 2095,
      "Ġjourn": 2096,
      "Ġdrives": 2097,
      "Ġhabit": 2098,
      "ule": 2099,
      "ĠMar": 2100,
      "Ġbasketball": 2101,
      "ck": 2102,
      "Ġjazz": 2103,
      "ĠMidwestern": 2104,
      "focused": 2105,
      "orts": 2106,
      "Ġafter": 2107,
      "ĠcÃ¢u": 2108,
      "Ġleadership": 2109,
      "Ġinterac": 2110,
      "ledge": 2111,
      "oper": 2112,
      "rations": 2113,
      "Ġsatis": 2114,
      "Ġmar": 2115,
      "Ġevery": 2116,
      "Ġty": 2117,
      "ĠNguyÃªn": 2118,
      "Ġquá»ĳc": 2119,
      "Ġresp": 2120,
      "Ġfeaturing": 2121,
      "Ġknowledge": 2122,
      "dle": 2123,
      "Ġsta": 2124,
      "Ġhom": 2125,
      "Ġmeticulously": 2126,
      "Ġflexible": 2127,
      "Ġnovels": 2128,
      "Ġsatisf": 2129,
      "Ġkiáº¿n": 2130,
      "Ġdelights": 2131,
      "ho": 2132,
      "Ġstress": 2133,
      "Ġschedul": 2134,
      "Ġwhen": 2135,
      "Ġyouth": 2136,
      "Ġmix": 2137,
      "Ġstories": 2138,
      "Ġsense": 2139,
      "ĠLE": 2140,
      "Ġemb": 2141,
      "Ġund": 2142,
      "Ġtháº¡o": 2143,
      "Ġsom": 2144,
      "ĠSÆ¡n": 2145,
      "Ġlog": 2146,
      "ware": 2147,
      "Ġthree": 2148,
      "Ġtraining": 2149,
      "Ġngáº¯n": 2150,
      "ĠmÃ³c": 2151,
      "Ġideas": 2152,
      "ĠhÆ¡n": 2153,
      "orning": 2154,
      "Ġaspires": 2155,
      "Ġti": 2156,
      "chool": 2157,
      "Æ°a": 2158,
      "ĠÄĳá»ģ": 2159,
      "ĠPark": 2160,
      "Ġresearch": 2161,
      "Trong": 2162,
      "Ġanaly": 2163,
      "ohn": 2164,
      "Ġgo": 2165,
      "if": 2166,
      "Ġplaying": 2167,
      "ua": 2168,
      "Ġgaller": 2169,
      "rating": 2170,
      "Ġeth": 2171,
      "Ġfishing": 2172,
      "Ġinc": 2173,
      "Ġnhau": 2174,
      "Ġsports": 2175,
      "Phan": 2176,
      "Ġshaped": 2177,
      "ĠthÃ´ng": 2178,
      "ervis": 2179,
      "GO": 2180,
      "ĠhÆ°á»Łng": 2181,
      "ĠTex": 2182,
      "Ġexplore": 2183,
      "Ġcareer": 2184,
      "ĠAddition": 2185,
      "atoes": 2186,
      "Ġevenings": 2187,
      "ĠcÆ¡m": 2188,
      "áº¡t": 2189,
      "atives": 2190,
      "Ġcooper": 2191,
      "ĠÄĲÃ¡n": 2192,
      "Ġbecome": 2193,
      "agement": 2194,
      "Ġgardening": 2195,
      "Ġexperiment": 2196,
      "ĠLEGO": 2197,
      "eum": 2198,
      "Ġef": 2199,
      "ĠAdditionally": 2200,
      "Ġtháº§n": 2201,
      "Ġcolor": 2202,
      "Ġexpress": 2203,
      "class": 2204,
      "Ġhiking": 2205,
      "Ġdrawing": 2206,
      "ĠbÃłi": 2207,
      "Ġdrive": 2208,
      "Ã¢ng": 2209,
      "ĠtÃŃnh": 2210,
      "ĠNhÃł": 2211,
      "isions": 2212,
      "turing": 2213,
      "Ġskill": 2214,
      "áº¡nh": 2215,
      "Ġdocu": 2216,
      "Ġidentity": 2217,
      "Ġdá»ĭch": 2218,
      "key": 2219,
      "etimes": 2220,
      "bas": 2221,
      "Ġthese": 2222,
      "matic": 2223,
      "ĠmÃ´n": 2224,
      "Ġyounger": 2225,
      "Ġwatercolor": 2226,
      "Ġsometimes": 2227,
      "hib": 2228,
      "ĠSc": 2229,
      "iam": 2230,
      "Ġpassion": 2231,
      "Ġprag": 2232,
      "Ġfavor": 2233,
      "Ġinvolvement": 2234,
      "Ġrh": 2235,
      "Ġmaster": 2236,
      "Ġmuseum": 2237,
      "Ġposs": 2238,
      "ony": 2239,
      "Ġdev": 2240,
      "ricul": 2241,
      "Ġmentoring": 2242,
      "ĠchuyÃªn": 2243,
      "ĠSan": 2244,
      "Chá»ĭ": 2245,
      "Ġlearning": 2246,
      "rol": 2247,
      "Ġtechnology": 2248,
      "Ġrespons": 2249,
      "cel": 2250,
      "uzz": 2251,
      "Ġschedule": 2252,
      "Ġtom": 2253,
      "Ġallowing": 2254,
      "Ġmiddle": 2255,
      "one": 2256,
      "Ġmá»ĳi": 2257,
      "Ġnon": 2258,
      "ĠnÃły": 2259,
      "Ġwoodworking": 2260,
      "Ġspecial": 2261,
      "Ġbackg": 2262,
      "Ġmentorship": 2263,
      "Ġtal": 2264,
      "ĠphÆ°á»£ng": 2265,
      "Ġfir": 2266,
      "Ġprovid": 2267,
      "Ġshape": 2268,
      "ĠQu": 2269,
      "Ġimagin": 2270,
      "Ġ5": 2271,
      "Ġmark": 2272,
      "urban": 2273,
      "ĠthÃªm": 2274,
      "Ġchar": 2275,
      "rib": 2276,
      "Ġreflecting": 2277,
      "ĠnhÃ³m": 2278,
      "ques": 2279,
      "Ġorganization": 2280,
      "Ġsupervis": 2281,
      "ĠÄĳáº£m": 2282,
      "Ġnav": 2283,
      "ock": 2284,
      "Ġsketching": 2285,
      "iate": 2286,
      "Ġaround": 2287,
      "Ġelec": 2288,
      "Ġcoast": 2289,
      "ĠÄĳá»ı": 2290,
      "Ġtay": 2291,
      "Ġwe": 2292,
      "Ġexperiences": 2293,
      "ĠtrÃŃ": 2294,
      "Ġgener": 2295,
      "table": 2296,
      "Ġchá»ī": 2297,
      "Ġfoot": 2298,
      "Ġlaunch": 2299,
      "Ġreads": 2300,
      "ĠhÆ°á»Ľng": 2301,
      "ĠGi": 2302,
      "Ġmaintains": 2303,
      "ĠLo": 2304,
      "Ġconflic": 2305,
      "Ġsub": 2306,
      "ĠBlack": 2307,
      "Ġnavig": 2308,
      "ati": 2309,
      "Ġiniti": 2310,
      "ĠNai": 2311,
      "ĠAs": 2312,
      "ices": 2313,
      "tle": 2314,
      "ĠnÃ¢ng": 2315,
      "Ġtechni": 2316,
      "Ġsau": 2317,
      "ĠTrang": 2318,
      "gree": 2319,
      "Ġpuzz": 2320,
      "Ġtáº¥m": 2321,
      "Ġmind": 2322,
      "Ġstyle": 2323,
      "itiner": 2324,
      "Ġitiner": 2325,
      "Ġsustainable": 2326,
      "ĠtiÃªu": 2327,
      "Mar": 2328,
      "áºµ": 2329,
      "Ġfarm": 2330,
      "Ġfinds": 2331,
      "ĠAl": 2332,
      "Ġrecord": 2333,
      "Ġbroad": 2334,
      "Ġfootball": 2335,
      "Ġag": 2336,
      "Ã¡ch": 2337,
      "Ġrem": 2338,
      "ute": 2339,
      "Ġpreserv": 2340,
      "Ġrhyth": 2341,
      "olid": 2342,
      "Ġexhib": 2343,
      "Ġdegree": 2344,
      "Ġenvisions": 2345,
      "iction": 2346,
      "Ã¬n": 2347,
      "Th": 2348,
      "less": 2349,
      "Ġincludes": 2350,
      "Ġhosp": 2351,
      "ĠBáº¿n": 2352,
      "Ġsals": 2353,
      "ird": 2354,
      "Ġtheo": 2355,
      "reliance": 2356,
      "Ġfiction": 2357,
      "Ġrun": 2358,
      "Ġná»¯": 2359,
      "ĠÄĳá»ĵ": 2360,
      "tenance": 2361,
      "Ġstaff": 2362,
      "ĠtÆ°Æ¡ng": 2363,
      "Ġthiá»ĩn": 2364,
      "Ġphá»¥": 2365,
      "Ġperformances": 2366,
      "Ġclear": 2367,
      "ics": 2368,
      "aw": 2369,
      "day": 2370,
      "ĠHÃ¹ng": 2371,
      "TE": 2372,
      "áº½": 2373,
      "Ġtheater": 2374,
      "ĠngÃłnh": 2375,
      "Ãło": 2376,
      "Ġlai": 2377,
      "Ġpick": 2378,
      "Ġworld": 2379,
      "ĠláºŃp": 2380,
      "Ġtechniques": 2381,
      "Ġhospital": 2382,
      "Ġsee": 2383,
      "ĠÄĳá»įc": 2384,
      "Ġscen": 2385,
      "Ġkitch": 2386,
      "ĠCol": 2387,
      "Ġvegetable": 2388,
      "Ġdocument": 2389,
      "entle": 2390,
      "Ġgr": 2391,
      "ĠSTE": 2392,
      "Ġstrategic": 2393,
      "Ġcertification": 2394,
      "Ġpragmatic": 2395,
      "ĠlÆ°Æ¡ng": 2396,
      "based": 2397,
      "yl": 2398,
      "Ġser": 2399,
      "Ġtas": 2400,
      "Ġdáº¡": 2401,
      "Ġgentle": 2402,
      "Ġquáº£": 2403,
      "tings": 2404,
      "Ġinvent": 2405,
      "Ġtransition": 2406,
      "ond": 2407,
      "uis": 2408,
      "Ġoth": 2409,
      "ĠGiÃ³ng": 2410,
      "eling": 2411,
      "unior": 2412,
      "Ġarch": 2413,
      "ida": 2414,
      "Ġpred": 2415,
      "Ġjoins": 2416,
      "Ġcraft": 2417,
      "Ġcross": 2418,
      "Ġcreativ": 2419,
      "Ġfamil": 2420,
      "Ġpreparing": 2421,
      "ubles": 2422,
      "ountain": 2423,
      "Ġkitchen": 2424,
      "ĠÃĶng": 2425,
      "Ġhon": 2426,
      "Ġsalsa": 2427,
      "Ġcelebr": 2428,
      "fied": 2429,
      "Ġpursuits": 2430,
      "ado": 2431,
      "Ġmodern": 2432,
      "Ġbi": 2433,
      "Ġinform": 2434,
      "ĠphÃ²ng": 2435,
      "Ġneed": 2436,
      "Ġrelaxed": 2437,
      "Ġoutdoor": 2438,
      "Ġnháº¹": 2439,
      "Ġob": 2440,
      "Ġdreaming": 2441,
      "ĠSTEM": 2442,
      "ye": 2443,
      "Ġcá»¥": 2444,
      "Ġsharing": 2445,
      "Ġhospitality": 2446,
      "ult": 2447,
      "ui": 2448,
      "Ġsoul": 2449,
      "ĠbÃ¡n": 2450,
      "son": 2451,
      "ville": 2452,
      "Ġnghe": 2453,
      "oted": 2454,
      "Ġcrafts": 2455,
      "ĠCÃ¡t": 2456,
      "áº¯m": 2457,
      "ants": 2458,
      "Ġtiáº¿n": 2459,
      "Ġinfluences": 2460,
      "ists": 2461,
      "Ġcommit": 2462,
      "Ġretired": 2463,
      "ites": 2464,
      "Ġfuels": 2465,
      "Ġjunior": 2466,
      "Ġearn": 2467,
      "ĠGre": 2468,
      "ugg": 2469,
      "ned": 2470,
      "ĠdÃ¹": 2471,
      "Ġnights": 2472,
      "Ġchick": 2473,
      "Ġcompassion": 2474,
      "Ġsour": 2475,
      "knit": 2476,
      "Ġmanage": 2477,
      "Ġshowcas": 2478,
      "Ġdetail": 2479,
      "ģm": 2480,
      "Ġhaving": 2481,
      "ĠÄĳá»Ļi": 2482,
      "af": 2483,
      "ĠNor": 2484,
      "Ġvisits": 2485,
      "Ġinventory": 2486,
      "Ġbiá»ĥn": 2487,
      "Ġherbs": 2488,
      "ĠPro": 2489,
      "ĠÄĲÃł": 2490,
      "Ġanalys": 2491,
      "Ġcollaborative": 2492,
      "Ġholid": 2493,
      "Ġmá»ģm": 2494,
      "Ġbackground": 2495,
      "Ġsum": 2496,
      "isc": 2497,
      "Ġeventually": 2498,
      "epend": 2499,
      "Ġadventure": 2500,
      "Ġná»ĳi": 2501,
      "Ġstreet": 2502,
      "per": 2503,
      "aries": 2504,
      "rand": 2505,
      "Ġresil": 2506,
      "Ġtranh": 2507,
      "Ġpublic": 2508,
      "Ġleading": 2509,
      "ĠbÃº": 2510,
      "áº¡p": 2511,
      "Ġanim": 2512,
      "iented": 2513,
      "Ġengineering": 2514,
      "ature": 2515,
      "ĠsÄ©": 2516,
      "ana": 2517,
      "let": 2518,
      "Ġinterp": 2519,
      "de": 2520,
      "Ġvide": 2521,
      "oriented": 2522,
      "eter": 2523,
      "iving": 2524,
      "Ġmang": 2525,
      "Ġcurious": 2526,
      "loom": 2527,
      "ob": 2528,
      "Ġinitiatives": 2529,
      "Ġelectr": 2530,
      "school": 2531,
      "ÄĲ": 2532,
      "Ġill": 2533,
      "Ġhomem": 2534,
      "oÃłng": 2535,
      "try": 2536,
      "ying": 2537,
      "Ġtend": 2538,
      "Ġchicken": 2539,
      "Ġorganizational": 2540,
      "Ġreliable": 2541,
      "fully": 2542,
      "Ġhelping": 2543,
      "br": 2544,
      "ĠvÃ¹ng": 2545,
      "Ġcreativity": 2546,
      "á»įc": 2547,
      "ĠhÆ°Æ¡ng": 2548,
      "any": 2549,
      "Ġste": 2550,
      "Ġexplored": 2551,
      "ĠÄĳÆ¡n": 2552,
      "Ġshows": 2553,
      "minist": 2554,
      "ublesho": 2555,
      "oting": 2556,
      "utions": 2557,
      "Ġequ": 2558,
      "ĠOr": 2559,
      "Ġtroublesho": 2560,
      "oáº¡i": 2561,
      "Ġhard": 2562,
      "Ġcreating": 2563,
      "Ġties": 2564,
      "ĠNga": 2565,
      "Ġparticipating": 2566,
      "endly": 2567,
      "Ġpossesses": 2568,
      "tist": 2569,
      "Ġplanned": 2570,
      "Ġmanager": 2571,
      "Ġtomatoes": 2572,
      "Ġillust": 2573,
      "vis": 2574,
      "Ġinn": 2575,
      "Ġcháº£": 2576,
      "fiction": 2577,
      "Ġperf": 2578,
      "ĠSouth": 2579,
      "Ġhomemade": 2580,
      "Ġnhá»ĭp": 2581,
      "fici": 2582,
      "Ġwalking": 2583,
      "Ġsoftware": 2584,
      "Ġambition": 2585,
      "Ġvui": 2586,
      "ĠAfr": 2587,
      "ĠAfrican": 2588,
      "Ġrig": 2589,
      "ĠPhÆ°Æ¡ng": 2590,
      "Ġhum": 2591,
      "Ġtour": 2592,
      "ĠnhÃłng": 2593,
      "ĠDinh": 2594,
      "Ġbase": 2595,
      "Ġdevelopment": 2596,
      "Ġprocess": 2597,
      "Ġindust": 2598,
      "ious": 2599,
      "ĠlÆ°á»£ng": 2600,
      "ank": 2601,
      "ĠÄĳÃ´": 2602,
      "ables": 2603,
      "useum": 2604,
      "ĠbÃºn": 2605,
      "der": 2606,
      "iting": 2607,
      "Ġlet": 2608,
      "Ġcuis": 2609,
      "ĠcÃ¢y": 2610,
      "room": 2611,
      "Ġgeta": 2612,
      "Ġcháº¥t": 2613,
      "Ġposition": 2614,
      "ution": 2615,
      "Ġtháº¿": 2616,
      "arl": 2617,
      "urg": 2618,
      "elong": 2619,
      "Ġstand": 2620,
      "ficiency": 2621,
      "Ġfavors": 2622,
      "irloom": 2623,
      "ĠMuseum": 2624,
      "ĠLáºŃp": 2625,
      "ĠHoa": 2626,
      "ĠÄĲá»Ļc": 2627,
      "ĠlÃ£": 2628,
      "In": 2629,
      "Ġheirloom": 2630,
      "Ġtwo": 2631,
      "An": 2632,
      "Ġcontrib": 2633,
      "Ġmaintenance": 2634,
      "Ġresponsib": 2635,
      "áºµng": 2636,
      "ĠNáºµng": 2637,
      "ĠNgá»įc": 2638,
      "omm": 2639,
      "ticultural": 2640,
      "Ġfound": 2641,
      "Ġcoastal": 2642,
      "Ġanx": 2643,
      "Ġgiáº£n": 2644,
      "Ġcity": 2645,
      "itar": 2646,
      "Ġcolle": 2647,
      "ism": 2648,
      "Ġscene": 2649,
      "Ġemphasized": 2650,
      "Ġpuzzles": 2651,
      "tit": 2652,
      "Ġhob": 2653,
      "Ġrest": 2654,
      "ĠTháº£o": 2655,
      "ĠkhÃ³a": 2656,
      "ize": 2657,
      "Ġreflect": 2658,
      "ĠchÃ¨o": 2659,
      "Ġanalysis": 2660,
      "Ĺi": 2661,
      "Ġxe": 2662,
      "Al": 2663,
      "gro": 2664,
      "Æ°ng": 2665,
      "Ġvisit": 2666,
      "Ġtráº£i": 2667,
      "iled": 2668,
      "Ġdesire": 2669,
      "©ng": 2670,
      "Ġsmoked": 2671,
      "ĠWhile": 2672,
      "ier": 2673,
      "reach": 2674,
      "Ġchuyáº¿n": 2675,
      "Ġsales": 2676,
      "impact": 2677,
      "ĠYork": 2678,
      "«a": 2679,
      "áº·t": 2680,
      "Ġcompliance": 2681,
      "our": 2682,
      "ali": 2683,
      "ĠFlor": 2684,
      "ffec": 2685,
      "unc": 2686,
      "ality": 2687,
      "Ġtoward": 2688,
      "ĠAng": 2689,
      "Ġfostering": 2690,
      "uti": 2691,
      "Ġquanh": 2692,
      "Ġhoáº·c": 2693,
      "Ġcontin": 2694,
      "Ġbá»ĥ": 2695,
      "ral": 2696,
      "Ġcent": 2697,
      "ĠSe": 2698,
      "Ġhelps": 2699,
      "Ġsystems": 2700,
      "Ġethic": 2701,
      "Ġfac": 2702,
      "ĠtrÆ°á»Łng": 2703,
      "Ġanc": 2704,
      "áº¯p": 2705,
      "Ġsociable": 2706,
      "Ġregular": 2707,
      "Ġxuáº¥t": 2708,
      "Ġmember": 2709,
      "ats": 2710,
      "Ġnem": 2711,
      "Ġeye": 2712,
      "Ġoutreach": 2713,
      "Ġflu": 2714,
      "ĠÃ¢m": 2715,
      "Ġmon": 2716,
      "ping": 2717,
      "Ġphim": 2718,
      "Ġcustomer": 2719,
      "Ġbird": 2720,
      "Ġfairs": 2721,
      "Ġpractice": 2722,
      "Ġprecision": 2723,
      "Ġmulticultural": 2724,
      "ĠTexas": 2725,
      "Ġmin": 2726,
      "Ġmorning": 2727,
      "elves": 2728,
      "tery": 2729,
      "inn": 2730,
      "ago": 2731,
      "Ġparents": 2732,
      "Ġguitar": 2733,
      "Ġapply": 2734,
      "ients": 2735,
      "ym": 2736,
      "Ġtur": 2737,
      "iá»ĩm": 2738,
      "ĠGia": 2739,
      "uá»ĳc": 2740,
      "Ġbudding": 2741,
      "Ġchild": 2742,
      "ĠCity": 2743,
      "book": 2744,
      "Ġinnov": 2745,
      "ĠHuá»": 2746,
      "Ġáº£nh": 2747,
      "Ġquil": 2748,
      "cep": 2749,
      "arb": 2750,
      "iab": 2751,
      "Ġri": 2752,
      "Ġváº½": 2753,
      "Ġcooperative": 2754,
      "CM": 2755,
      "inf": 2756,
      "Ġvideo": 2757,
      "ka": 2758,
      "ĠtÃ¡c": 2759,
      "Ġcrafting": 2760,
      "look": 2761,
      "ĠbÃłn": 2762,
      "Ġconnec": 2763,
      "gener": 2764,
      "ĠcÃ¢n": 2765,
      "Ġdist": 2766,
      "Ġleads": 2767,
      "Ġtrá»įng": 2768,
      "Ġflavors": 2769,
      "Ġphá»¥c": 2770,
      "ĠSh": 2771,
      "Ġshare": 2772,
      "ract": 2773,
      "Ġdetailed": 2774,
      "osp": 2775,
      "Ġbaseball": 2776,
      "chan": 2777,
      "Ġxáº©m": 2778,
      "Ġsáº½": 2779,
      "irc": 2780,
      "ĠThu": 2781,
      "Ġartists": 2782,
      "Ġproductions": 2783,
      "Ġbridge": 2784,
      "struction": 2785,
      "Ġláº¡c": 2786,
      "Ġfollow": 2787,
      "Ġsummer": 2788,
      "Ġláº¡i": 2789,
      "orpor": 2790,
      "ĠÄĳá»Ļc": 2791,
      "olic": 2792,
      "Ġform": 2793,
      "ries": 2794,
      "ĠLe": 2795,
      "ĠTrail": 2796,
      "Ġimprove": 2797,
      "Ġgalleries": 2798,
      "pro": 2799,
      "Ġthuá»Ļc": 2800,
      "Ġsun": 2801,
      "Ġcultiv": 2802,
      "Ġremain": 2803,
      "Ġharm": 2804,
      "Ġfoc": 2805,
      "Ãªng": 2806,
      "Ġleveraging": 2807,
      "ars": 2808,
      "asted": 2809,
      "atches": 2810,
      "Ġros": 2811,
      "ability": 2812,
      "Ġarea": 2813,
      "Ġtrac": 2814,
      "Ġsáº¯c": 2815,
      "Ġenthusias": 2816,
      "ĠTo": 2817,
      "anced": 2818,
      "ĠEx": 2819,
      "ĠInd": 2820,
      "Ġtransl": 2821,
      "Ġconflict": 2822,
      "Ġcorn": 2823,
      "Ġpap": 2824,
      "Ġforget": 2825,
      "alle": 2826,
      "Ġclasses": 2827,
      "Ġholidays": 2828,
      "Ġanxiety": 2829,
      "yn": 2830,
      "¯ng": 2831,
      "Ġcr": 2832,
      "Ġbet": 2833,
      "ĠLake": 2834,
      "ĠgiÃ¡o": 2835,
      "Ġanalytical": 2836,
      "Ġwr": 2837,
      "Ġthems": 2838,
      "ĠnhiÃªn": 2839,
      "ĠTÃ¢y": 2840,
      "Ġthemselves": 2841,
      "erman": 2842,
      "Ġlos": 2843,
      "Ġvá»¯ng": 2844,
      "iáº¿n": 2845,
      "Ġembrac": 2846,
      "ude": 2847,
      "Ġfive": 2848,
      "ĠquÃ¡n": 2849,
      "ĠJohn": 2850,
      "Ġclean": 2851,
      "ield": 2852,
      "Å©ng": 2853,
      "Ġdeliver": 2854,
      "Ġdemon": 2855,
      "Ġvint": 2856,
      "Ġflexibility": 2857,
      "pr": 2858,
      "ĠNational": 2859,
      "riting": 2860,
      "ĠDI": 2861,
      "med": 2862,
      "ina": 2863,
      "uss": 2864,
      "ÃŃa": 2865,
      "ancing": 2866,
      "Ġcheering": 2867,
      "Ġvintage": 2868,
      "ĠDIY": 2869,
      "Ġmechan": 2870,
      "áº©n": 2871,
      "Ġráº£nh": 2872,
      "Ġside": 2873,
      "ints": 2874,
      "Ġvá»«a": 2875,
      "infused": 2876,
      "á»Ń": 2877,
      "ĠlÆ°u": 2878,
      "Ġteams": 2879,
      "Ġoperations": 2880,
      "ĠtÃ¬nh": 2881,
      "raph": 2882,
      "Ġspe": 2883,
      "oming": 2884,
      "Ġpracticality": 2885,
      "ron": 2886,
      "ĠmÃ´i": 2887,
      "Ġday": 2888,
      "Ġeffec": 2889,
      "vie": 2890,
      "ona": 2891,
      "Ġpat": 2892,
      "Ġquick": 2893,
      "emary": 2894,
      "áº©u": 2895,
      "Ġcuisine": 2896,
      "ĠriÃªng": 2897,
      "Ġfocus": 2898,
      "Ġfind": 2899,
      "Ġdown": 2900,
      "Ġresilience": 2901,
      "Ġworking": 2902,
      "Ã¹i": 2903,
      "umb": 2904,
      "Ġorganizing": 2905,
      "Ġroutines": 2906,
      "Ġunder": 2907,
      "Ġitineraries": 2908,
      "ĠMountain": 2909,
      "Ġonline": 2910,
      "Ġindul": 2911,
      "erm": 2912,
      "Ġboard": 2913,
      "Ġimmerses": 2914,
      "Ġgetaways": 2915,
      "uf": 2916,
      "oring": 2917,
      "ouse": 2918,
      "Ġlandscapes": 2919,
      "Ġpil": 2920,
      "anta": 2921,
      "fri": 2922,
      "ĠFr": 2923,
      "Ġcomput": 2924,
      "duce": 2925,
      "ĠLa": 2926,
      "fice": 2927,
      "Ġenerg": 2928,
      "ull": 2929,
      "Ġindepend": 2930,
      "tives": 2931,
      "ized": 2932,
      "ĠChic": 2933,
      "Ġleg": 2934,
      "ĠNgÃ¢n": 2935,
      "Ġauth": 2936,
      "Ġsci": 2937,
      "Ġcombines": 2938,
      "isure": 2939,
      "ez": 2940,
      "Ġveter": 2941,
      "Ġleisure": 2942,
      "ĠVal": 2943,
      "Ġbouti": 2944,
      "Ġquyáº¿t": 2945,
      "Ġrosemary": 2946,
      "Ã¨n": 2947,
      "Ġcomplex": 2948,
      "Ġboutique": 2949,
      "ĠAt": 2950,
      "ipment": 2951,
      "ĠChicago": 2952,
      "á»§": 2953,
      "ilant": 2954,
      "Ġworry": 2955,
      "watching": 2956,
      "Ġpic": 2957,
      "arra": 2958,
      "Ġrural": 2959,
      "ĠxÃ¨o": 2960,
      "Ġlibr": 2961,
      "Ġmanaging": 2962,
      "Ġschedules": 2963,
      "Ġoutlook": 2964,
      "utside": 2965,
      "Ġtroubleshooting": 2966,
      "Ġancest": 2967,
      "inking": 2968,
      "Ã²i": 2969,
      "Ġconnect": 2970,
      "weet": 2971,
      "Ġtac": 2972,
      "Ġadap": 2973,
      "ĠChá»ĭ": 2974,
      "Ġsatisfy": 2975,
      "Ġstandards": 2976,
      "ĠcÆ°": 2977,
      "Ġcirc": 2978,
      "Ġhave": 2979,
      "Ġcreate": 2980,
      "ospel": 2981,
      "itting": 2982,
      "Ġacous": 2983,
      "Ġpark": 2984,
      "Ġcelebrations": 2985,
      "tail": 2986,
      "ington": 2987,
      "ĠxÃ£": 2988,
      "Ġlogis": 2989,
      "way": 2990,
      "Ġliá»ĩu": 2991,
      "Ġstreets": 2992,
      "Ġretire": 2993,
      "ĠArt": 2994,
      "Ġacoustic": 2995,
      "Ġconcep": 2996,
      "Ġcompassionate": 2997,
      "ilantro": 2998,
      "vide": 2999,
      "rop": 3000,
      "Ġovers": 3001,
      "ker": 3002,
      "ĠtrÃ²": 3003,
      "illiam": 3004,
      "ython": 3005,
      "Ġfoundation": 3006,
      "though": 3007,
      "Ġparticipate": 3008,
      "ced": 3009,
      "Ġcred": 3010,
      "Ġcilantro": 3011,
      "Ġemphasis": 3012,
      "Ġmulti": 3013,
      "Ġcollege": 3014,
      "Ġautom": 3015,
      "ĠHuá»ĩ": 3016,
      "aro": 3017,
      "ests": 3018,
      "ĠdÃ£": 3019,
      "Ġthá»§": 3020,
      "ĠThis": 3021,
      "angu": 3022,
      "Ġscenes": 3023,
      "ĠNorth": 3024,
      "Ġtáº§": 3025,
      "organiz": 3026,
      "ĠBro": 3027,
      "įi": 3028,
      "Ġsweet": 3029,
      "Ġann": 3030,
      "Ġlive": 3031,
      "Ġreliab": 3032,
      "Ġbeach": 3033,
      "áº¹p": 3034,
      "grim": 3035,
      "Ġpredic": 3036,
      "Ġpilgrim": 3037,
      "alog": 3038,
      "ĠtrÆ°ng": 3039,
      "Ġinclus": 3040,
      "Ġtasks": 3041,
      "ĠBe": 3042,
      "Ġsolutions": 3043,
      "Ġgospel": 3044,
      "Ġnur": 3045,
      "Ġthanh": 3046,
      "īnh": 3047,
      "infor": 3048,
      "Ġbasil": 3049,
      "Ġblending": 3050,
      "oir": 3051,
      "³nh": 3052,
      "Ġgame": 3053,
      "Ġadminist": 3054,
      "rise": 3055,
      "Ġcomfortable": 3056,
      "Ġav": 3057,
      "ties": 3058,
      "Ġdance": 3059,
      "ately": 3060,
      "Ġchu": 3061,
      "omin": 3062,
      "Ġcá»ĳng": 3063,
      "Ġexpos": 3064,
      "ĠPython": 3065,
      "Ġ19": 3066,
      "Ġits": 3067,
      "Ġchung": 3068,
      "Ġabst": 3069,
      "uá»ĳng": 3070,
      "Ġsur": 3071,
      "ĠPhong": 3072,
      "Ġrau": 3073,
      "Ġcoordination": 3074,
      "reads": 3075,
      "Ġthri": 3076,
      "ĠCar": 3077,
      "Ġequipment": 3078,
      "Ġcas": 3079,
      "ĠTrong": 3080,
      "Ġsupervisory": 3081,
      "eor": 3082,
      "oking": 3083,
      "Ġneighbors": 3084,
      "ĠQuá»ĳc": 3085,
      "Ġmedia": 3086,
      "Ġcáº£nh": 3087,
      "Ġcoding": 3088,
      "Ġretail": 3089,
      "Ġvolunteering": 3090,
      "Ġrecre": 3091,
      "Ġjournal": 3092,
      "Ġarchit": 3093,
      "Ġcomputer": 3094,
      "des": 3095,
      "Ġmáº¯m": 3096,
      "Ġlearn": 3097,
      "friendly": 3098,
      "DÃ¹": 3099,
      "Outside": 3100,
      "itation": 3101,
      "Ġinforms": 3102,
      "Ġmodesty": 3103,
      "aves": 3104,
      "port": 3105,
      "ĠKhoa": 3106,
      "Ġexpression": 3107,
      "ael": 3108,
      "Ġorganize": 3109,
      "ĠYáº¿n": 3110,
      "Ġchá»ĭ": 3111,
      "ager": 3112,
      "Ġcompet": 3113,
      "Ġtá»Ń": 3114,
      "Ġprovides": 3115,
      "Ġmet": 3116,
      "Ġfield": 3117,
      "rang": 3118,
      "ĠMon": 3119,
      "Ġcáº£m": 3120,
      "Ġlim": 3121,
      "Ġreinfor": 3122,
      "Ġcustoms": 3123,
      "Ġwriting": 3124,
      "Ġwhose": 3125,
      "ĠBay": 3126,
      "Ġretirement": 3127,
      "Ġnarra": 3128,
      "Ġcá»Ŀ": 3129,
      "Ġbalanced": 3130,
      "ĠTráº§n": 3131,
      "Ġgraph": 3132,
      "Ġchil": 3133,
      "Ġherb": 3134,
      "yard": 3135,
      "ĠbÃ¨o": 3136,
      "Ġdraws": 3137,
      "Ġlibrary": 3138,
      "Ġabstract": 3139,
      "luc": 3140,
      "Ġplat": 3141,
      "Ġbroader": 3142,
      "Ġannual": 3143,
      "cent": 3144,
      "che": 3145,
      "Ġphong": 3146,
      "ĠGerman": 3147,
      "ĠRe": 3148,
      "ĠWash": 3149,
      "ertified": 3150,
      "Ġroasted": 3151,
      "Ġmá»įi": 3152,
      "Ġteaching": 3153,
      "Ġpreference": 3154,
      "iec": 3155,
      "ĠnháºŃn": 3156,
      "Ġjugg": 3157,
      "Ġngáº¯m": 3158,
      "ween": 3159,
      "ĠhÃ¬nh": 3160,
      "ĠChÃŃ": 3161,
      "Ġtrá»ĵng": 3162,
      "Ġenthusiast": 3163,
      "Ġrhythm": 3164,
      "ail": 3165,
      "Ġest": 3166,
      "Ġartist": 3167,
      "á»¯u": 3168,
      "ograph": 3169,
      "Ġbetween": 3170,
      "ĠsÃ¡ch": 3171,
      "ĠHá»¯u": 3172,
      "Ġxá»Ń": 3173,
      "irec": 3174,
      "Ġservices": 3175,
      "Ġimmig": 3176,
      "Ġguid": 3177,
      "ĠFlorida": 3178,
      "ĠWashington": 3179,
      "Ġfr": 3180,
      "keep": 3181,
      "za": 3182,
      "Ġlate": 3183,
      "Ġsal": 3184,
      "Ġláº©u": 3185,
      "lif": 3186,
      "Ġtá»ĳi": 3187,
      "Ġrigor": 3188,
      "ĠValley": 3189,
      "Ġchess": 3190,
      "igning": 3191,
      "Ġspring": 3192,
      "Ġpotluc": 3193,
      "Ġobtain": 3194,
      "alleng": 3195,
      "Ġca": 3196,
      "Ġchalleng": 3197,
      "Ġquality": 3198,
      "ivid": 3199,
      "Ġchoir": 3200,
      "Ġngoáº¡i": 3201,
      "estyle": 3202,
      "Ġadvanced": 3203,
      "Ġreflects": 3204,
      "ĠNhá»¯ng": 3205,
      "ĠScr": 3206,
      "Ġpreserving": 3207,
      "Ġinclusive": 3208,
      "Ġlifelong": 3209,
      "Ġfirst": 3210,
      "olution": 3211,
      "acks": 3212,
      "Ġciv": 3213,
      "Ġsn": 3214,
      "Ġfocused": 3215,
      "ersonal": 3216,
      "Ġtrang": 3217,
      "Ġcombine": 3218,
      "Æ°Æ¡m": 3219,
      "Ġcomplete": 3220,
      "con": 3221,
      "Ġliterature": 3222,
      "eles": 3223,
      "ĠZ": 3224,
      "áº·ng": 3225,
      "ĠGÆ°Æ¡m": 3226,
      "Ġparks": 3227,
      "Ġassess": 3228,
      "Ġunw": 3229,
      "ific": 3230,
      "sc": 3231,
      "the": 3232,
      "Ġtam": 3233,
      "Ġpati": 3234,
      "Ġstream": 3235,
      "ĠGro": 3236,
      "ĠDÃŃa": 3237,
      "Ġlifestyle": 3238,
      "Ġexhibitions": 3239,
      "Ġenergy": 3240,
      "Ġlangu": 3241,
      "ĠCertified": 3242,
      "Ġstays": 3243,
      "Ġmá»¥c": 3244,
      "Ġinterpersonal": 3245,
      "Ã½": 3246,
      "Ġká»ĭch": 3247,
      "Ġprovide": 3248,
      "ĠKy": 3249,
      "Ġability": 3250,
      "management": 3251,
      "Ġlogistics": 3252,
      "roll": 3253,
      "ĠLos": 3254,
      "Ġcoordinating": 3255,
      "Ġgraphic": 3256,
      "Ġ6": 3257,
      "Ġturn": 3258,
      "Ġworkf": 3259,
      "ĠState": 3260,
      "Ġmemoir": 3261,
      "Ġperfec": 3262,
      "Ġcáº£": 3263,
      "Ġfan": 3264,
      "ĠEngland": 3265,
      "Ġrepair": 3266,
      "Ġdáº¡y": 3267,
      "ĠsÃ´ng": 3268,
      "ara": 3269,
      "edic": 3270,
      "tory": 3271,
      "Ġdeveloped": 3272,
      "ĠKyoto": 3273,
      "Ġimagination": 3274,
      "ĠExcel": 3275,
      "ole": 3276,
      "town": 3277,
      "Ġcá»ĳ": 3278,
      "ĠMu": 3279,
      "Ġbackyard": 3280,
      "Ġensuring": 3281,
      "ablish": 3282,
      "Ã¹y": 3283,
      "Ġcustom": 3284,
      "Ġintegr": 3285,
      "Ġindie": 3286,
      "Ġtalent": 3287,
      "Ġpattern": 3288,
      "center": 3289,
      "fulness": 3290,
      "Ġestablish": 3291,
      "Ġ'": 3292,
      "Ġrock": 3293,
      "Ġemo": 3294,
      "Ġmental": 3295,
      "Ġadvance": 3296,
      "Ġtending": 3297,
      "Ġpilgrimage": 3298,
      "bl": 3299,
      "Ġsupports": 3300,
      "Ġquilting": 3301,
      "ĠmÃº": 3302,
      "Ġsens": 3303,
      "Ġincorpor": 3304,
      "burg": 3305,
      "Ġbre": 3306,
      "Ġdáº¡o": 3307,
      "Ġobs": 3308,
      "áº¡ng": 3309,
      "Ġgrand": 3310,
      "Ġtamales": 3311,
      "Ġluyá»ĩn": 3312,
      "leans": 3313,
      "Ġsolving": 3314,
      "Ġchef": 3315,
      "Ġturning": 3316,
      "Ġlegacy": 3317,
      "ery": 3318,
      "ĠÄĳÃ³": 3319,
      "forn": 3320,
      "Ġdesert": 3321,
      "Ġengineer": 3322,
      "Ġlandscape": 3323,
      "aliforn": 3324,
      "ĠSm": 3325,
      "Ġconstruction": 3326,
      "Ġconfid": 3327,
      "Ġresponsibility": 3328,
      "ĠmÃºa": 3329,
      "HCM": 3330,
      "ĠÄĲá»ĵ": 3331,
      "Ġincluding": 3332,
      "ngth": 3333,
      "Ġcro": 3334,
      "ush": 3335,
      "ĠquÃª": 3336,
      "raft": 3337,
      "Ġris": 3338,
      "Ġconst": 3339,
      "ĠDÅ©ng": 3340,
      "Ġculturally": 3341,
      "Ġprecise": 3342,
      "iar": 3343,
      "ĠthÄĥng": 3344,
      "Ġcounty": 3345,
      "Ġformal": 3346,
      "ufac": 3347,
      "iors": 3348,
      "sh": 3349,
      "uan": 3350,
      "ĠCaliforn": 3351,
      "Ġcontrol": 3352,
      "Ġmuseums": 3353,
      "view": 3354,
      "pical": 3355,
      "Ġcard": 3356,
      "Ã³p": 3357,
      "ĠSoc": 3358,
      "Ġnghá»ī": 3359,
      "enealog": 3360,
      "Ġtechnologies": 3361,
      "Ġcommitment": 3362,
      "Ġcredenti": 3363,
      "tra": 3364,
      "Ġhers": 3365,
      "elor": 3366,
      "Ġloáº¡i": 3367,
      "Ġinterest": 3368,
      "Ã©t": 3369,
      "ertos": 3370,
      "Ġintegra": 3371,
      "ift": 3372,
      "Ġgáº¯": 3373,
      "Ġprot": 3374,
      "ĠphÃ¡o": 3375,
      "ĠQuáº£ng": 3376,
      "Ġdistric": 3377,
      "Ġmechanical": 3378,
      "Mich": 3379,
      "Ġsti": 3380,
      "Ġspreads": 3381,
      "Ġstreak": 3382,
      "Ġpursue": 3383,
      "Ġperformance": 3384,
      "Ġherself": 3385,
      "Ġmua": 3386,
      "ĠThÃ¹y": 3387,
      "ization": 3388,
      "pper": 3389,
      "Ġdesigning": 3390,
      "Ġpreferring": 3391,
      "Ġdemonstr": 3392,
      "be": 3393,
      "ĠgÃ³p": 3394,
      "lement": 3395,
      "Ġknitting": 3396,
      "bert": 3397,
      "Ġothers": 3398,
      "rish": 3399,
      "erto": 3400,
      "ĠchÃ²i": 3401,
      "ĠngoÃłi": 3402,
      "Ġparticipation": 3403,
      "Ġmarket": 3404,
      "ĠMuertos": 3405,
      "Ġstrength": 3406,
      "night": 3407,
      "Ġaud": 3408,
      "ĠthÃ´n": 3409,
      "Ġpiec": 3410,
      "Ġcours": 3411,
      "Ġprom": 3412,
      "Ġlocally": 3413,
      "Ġskilled": 3414,
      "Ġcelebrates": 3415,
      "ĠLatin": 3416,
      "ĠScratch": 3417,
      "ica": 3418,
      "Ġcheese": 3419,
      "fit": 3420,
      "ges": 3421,
      "ted": 3422,
      "ason": 3423,
      "Ġclient": 3424,
      "uá»³nh": 3425,
      "Ġsuburban": 3426,
      "Ġing": 3427,
      "Ġsing": 3428,
      "era": 3429,
      "Ġká»": 3430,
      "Ġacross": 3431,
      "ost": 3432,
      "á»Ļn": 3433,
      "Ġbecoming": 3434,
      "Ġefficient": 3435,
      "Ġspreadshe": 3436,
      "Ġmakes": 3437,
      "ĠMountains": 3438,
      "Ġphys": 3439,
      "Ġconcepts": 3440,
      "áº«n": 3441,
      "ĠÄĳÃ¨n": 3442,
      "Ġwild": 3443,
      "ĠCÆ°á»Ŀng": 3444,
      "Ġstew": 3445,
      "Ġrobo": 3446,
      "Ġdeepen": 3447,
      "Ġpri": 3448,
      "Ġdancing": 3449,
      "ulting": 3450,
      "tens": 3451,
      "Ġeducational": 3452,
      "Ġinteractive": 3453,
      "Ġmys": 3454,
      "Ġdedic": 3455,
      "Ġdead": 3456,
      "Ġconsist": 3457,
      "Ġemplo": 3458,
      "Ġveteran": 3459,
      "Ġplatforms": 3460,
      "Ġlets": 3461,
      "Ġpop": 3462,
      "Ġfus": 3463,
      "Ġcond": 3464,
      "Ġintern": 3465,
      "bers": 3466,
      "Ġtends": 3467,
      "Ġassoc": 3468,
      "Ġassist": 3469,
      "Ġinnovative": 3470,
      "ĠgÃ¡i": 3471,
      "Ġgenealog": 3472,
      "Ġrich": 3473,
      "aces": 3474,
      "Ġhear": 3475,
      "ĠOver": 3476,
      "Ġfamiliar": 3477,
      "Ġmáº¡ng": 3478,
      "ĠÄĳáº§u": 3479,
      "arao": 3480,
      "Ġgym": 3481,
      "Ġnu": 3482,
      "ĠCÃ´ng": 3483,
      "ĠBá»Ļ": 3484,
      "Ġreliability": 3485,
      "araoke": 3486,
      "ĠgÃ¬n": 3487,
      "ams": 3488,
      "etry": 3489,
      "ower": 3490,
      "ĠÄĳÃłn": 3491,
      "Ġrooted": 3492,
      "Ġorder": 3493,
      "ĠÄĲáº¡t": 3494,
      "Ãºc": 3495,
      "ĠIs": 3496,
      "Ġjoining": 3497,
      "Ġurban": 3498,
      "Ġsites": 3499,
      "ena": 3500,
      "Ġná»": 3501,
      "ett": 3502,
      "ĠGeor": 3503,
      "Ġcelebrating": 3504,
      "Ġidentif": 3505,
      "Ġsunrise": 3506,
      "ĠthÆ°Æ¡ng": 3507,
      "Ġvar": 3508,
      "Ġngon": 3509,
      "oph": 3510,
      "Ġoffers": 3511,
      "ĠLoan": 3512,
      "Ġchuáº©n": 3513,
      "Ġsw": 3514,
      "ores": 3515,
      "iture": 3516,
      "ĠrÃµ": 3517,
      "Ġexpand": 3518,
      "rich": 3519,
      "Ġdisorganiz": 3520,
      "Ġaspiring": 3521,
      "uel": 3522,
      "yc": 3523,
      "ico": 3524,
      "Ġkaraoke": 3525,
      "Ġcá»©": 3526,
      "Ġsecure": 3527,
      "Ġelectron": 3528,
      "Sh": 3529,
      "ney": 3530,
      "Ľm": 3531,
      "Ġthinking": 3532,
      "Ġhar": 3533,
      "Ġlinh": 3534,
      "anks": 3535,
      "Ġsá»Ľm": 3536,
      "Ġcurricul": 3537,
      "vely": 3538,
      "Ġalways": 3539,
      "Ġseniors": 3540,
      "Ġedge": 3541,
      "Ġimprovis": 3542,
      "Ġtá»Ļc": 3543,
      "Ġmaking": 3544,
      "Ġfil": 3545,
      "Ġnet": 3546,
      "Although": 3547,
      "ani": 3548,
      "antly": 3549,
      "Ġstudents": 3550,
      "gin": 3551,
      "unds": 3552,
      "Ġtáº¡p": 3553,
      "Ġske": 3554,
      "Ġfund": 3555,
      "ise": 3556,
      "Ġasser": 3557,
      "urniture": 3558,
      "Ġingred": 3559,
      "word": 3560,
      "Ġterm": 3561,
      "ĠhÆ°u": 3562,
      "Ġmanufac": 3563,
      "iano": 3564,
      "Ġperspec": 3565,
      "Ġbuilds": 3566,
      "ĠGrowing": 3567,
      "Ġcá»©u": 3568,
      "Minh": 3569,
      "trac": 3570,
      "Ġthi": 3571,
      "Ġlar": 3572,
      "erge": 3573,
      "ĠÄĳÃ¡o": 3574,
      "Ãºng": 3575,
      "unctional": 3576,
      "ĠÄĳáº¥t": 3577,
      "tively": 3578,
      "Ġcoordinator": 3579,
      "Ġdemonstrates": 3580,
      "ĠnhÃ¬n": 3581,
      "Ġchamp": 3582,
      "ĠThese": 3583,
      "izing": 3584,
      "fore": 3585,
      "lines": 3586,
      "Ġtypical": 3587,
      "Ġpieces": 3588,
      "ĠÄĳá»Ļ": 3589,
      "Ġchuyá»ĩn": 3590,
      "Ġtrá»£": 3591,
      "Ġinclude": 3592,
      "Ġlanguage": 3593,
      "ĠX": 3594,
      "Ġtaking": 3595,
      "ones": 3596,
      "Ġfurniture": 3597,
      "attle": 3598,
      "Ġcháº¿": 3599,
      "ĠxÆ°a": 3600,
      "avid": 3601,
      "ĠOn": 3602,
      "Ġbefore": 3603,
      "Ġimmersion": 3604,
      "Ġscheduling": 3605,
      "Ġefficiency": 3606,
      "Ġenjoy": 3607,
      "Ġgrowing": 3608,
      "Ġgreens": 3609,
      "Ġcheers": 3610,
      "keeping": 3611,
      "HoÃłng": 3612,
      "Ġallows": 3613,
      "Ġstead": 3614,
      "Ġpatterns": 3615,
      "Ġskep": 3616,
      "Ġtrip": 3617,
      "Ġoutlet": 3618,
      "¡ng": 3619,
      "Ġeld": 3620,
      "ĠApp": 3621,
      "Ġspecialist": 3622,
      "Ġhearty": 3623,
      "Jose": 3624,
      "ĠlÃ¢u": 3625,
      "Ġbá»¯a": 3626,
      "ĠBáº£o": 3627,
      "ĠPháº¡m": 3628,
      "til": 3629,
      "ench": 3630,
      "eness": 3631,
      "rika": 3632,
      "omp": 3633,
      "Ġstudy": 3634,
      "Ġconsulting": 3635,
      "Ġruns": 3636,
      "ters": 3637,
      "Ġá»": 3638,
      "Ġbach": 3639,
      "Æ°á»¡ng": 3640,
      "ĠphÃ¢n": 3641,
      "ĠPac": 3642,
      "goti": 3643,
      "Ġagricul": 3644,
      "Ġspeaking": 3645,
      "Ġingredients": 3646,
      "Ã£n": 3647,
      "Ġvegetables": 3648,
      "Ġimaginative": 3649,
      "ĠtrÃ¡ng": 3650,
      "ĠKim": 3651,
      "Ġoptim": 3652,
      "Ġcarp": 3653,
      "gia": 3654,
      "Ġsong": 3655,
      "Ġmore": 3656,
      "Ã¡nh": 3657,
      "ĠnÃªn": 3658,
      "ocks": 3659,
      "Ġnegoti": 3660,
      "Ġphá»ĳi": 3661,
      "ĠOrleans": 3662,
      "ĠMan": 3663,
      "aps": 3664,
      "Ġnavigating": 3665,
      "Ġseeks": 3666,
      "group": 3667,
      "Ġcentral": 3668,
      "ercis": 3669,
      "ano": 3670,
      "Ġproduce": 3671,
      "Ġnghi": 3672,
      "ĠnghiÃªn": 3673,
      "ogn": 3674,
      "ĠthÆ°": 3675,
      "Ġcommunal": 3676,
      "Ġclassroom": 3677,
      "Ġoutdoors": 3678,
      "Ġmindfulness": 3679,
      "ommun": 3680,
      "Ġmornings": 3681,
      "Ġpredictable": 3682,
      "Ġwants": 3683,
      "Ġchuyá»ģn": 3684,
      "Ġkeeps": 3685,
      "Ġcollard": 3686,
      "Ġmonth": 3687,
      "Ġeffective": 3688,
      "Ġmystery": 3689,
      "Ġchampion": 3690,
      "cho": 3691,
      "ician": 3692,
      "ĠquáºŃn": 3693,
      "Ġexercis": 3694,
      "Ġlá»±c": 3695,
      "Ġxáº¿": 3696,
      "pped": 3697,
      "Ġpeers": 3698,
      "Ġdocumentation": 3699,
      "oni": 3700,
      "Ġpie": 3701,
      "ulf": 3702,
      "ads": 3703,
      "Ġlikes": 3704,
      "ĠRo": 3705,
      "ĠphÃ¡p": 3706,
      "Ġsolo": 3707,
      "ffee": 3708,
      "Ġuses": 3709,
      "Ġreader": 3710,
      "Ġworldview": 3711,
      "Ġlem": 3712,
      "Ġwatching": 3713,
      "level": 3714,
      "annah": 3715,
      "ĠCoast": 3716,
      "Ġrecords": 3717,
      "giving": 3718,
      "ooth": 3719,
      "Ġstable": 3720,
      "ĠLÄĥng": 3721,
      "Ġshr": 3722,
      "ĠÃ¡p": 3723,
      "Ġtrek": 3724,
      "ĠlÃ£m": 3725,
      "ĠCalifornia": 3726,
      "),": 3727,
      "ĠniÃªn": 3728,
      "Ġkhiá»ĥn": 3729,
      "ietn": 3730,
      "Ġfavoring": 3731,
      "ĠÄĳáº¹p": 3732,
      "Ġcher": 3733,
      "ĠBÃ¡c": 3734,
      "ĠAngeles": 3735,
      "Ġgáº¯n": 3736,
      "wh": 3737,
      "Ġwom": 3738,
      "ase": 3739,
      "ĠCub": 3740,
      "Ġsketches": 3741,
      "Ġarchitec": 3742,
      "Ġjuggling": 3743,
      "Ġrobotics": 3744,
      "lies": 3745,
      "Ġdin": 3746,
      "ĠgiÃ£n": 3747,
      "ĠVietn": 3748,
      "Ġassem": 3749,
      "Ġfavorite": 3750,
      "Ġcam": 3751,
      "Ġhandling": 3752,
      "Ġpoetry": 3753,
      "Ġbiograph": 3754,
      "aul": 3755,
      "house": 3756,
      "uff": 3757,
      "alach": 3758,
      "Ġkho": 3759,
      "Ġhá»Ĺ": 3760,
      "Ġtá»Ľi": 3761,
      "ĠChi": 3762,
      "Ġdesigns": 3763,
      "Ġexperimental": 3764,
      "Ġmastering": 3765,
      "ĠAsian": 3766,
      "ĠthÆ¡": 3767,
      "Ġmodel": 3768,
      "Ġteamwork": 3769,
      "Ġmoments": 3770,
      "ĠAppalach": 3771,
      "disc": 3772,
      "ru": 3773,
      "ĠPu": 3774,
      "oky": 3775,
      "Ġcurr": 3776,
      "ricate": 3777,
      "Ġstaying": 3778,
      "Ġmarkets": 3779,
      "Ġharmony": 3780,
      "Ġbiographies": 3781,
      "hips": 3782,
      "Ġmis": 3783,
      "ĠmÃ´": 3784,
      "ĠÄĳá»Ŀi": 3785,
      "uting": 3786,
      "Ġshift": 3787,
      "ĠIrish": 3788,
      "Ġconnected": 3789,
      "Ġoffice": 3790,
      "Ġstate": 3791,
      "ĠPat": 3792,
      "Ġspl": 3793,
      "Ġintricate": 3794,
      "ĠAppalachian": 3795,
      "Ġpas": 3796,
      "ĠnÃ©t": 3797,
      "Ġcoffee": 3798,
      "rial": 3799,
      "Ġpaprika": 3800,
      "Michael": 3801,
      "Ġpiano": 3802,
      "utes": 3803,
      "Ġconnection": 3804,
      "atic": 3805,
      "Ġstep": 3806,
      "Ġlevel": 3807,
      "ĠDie": 3808,
      "Ġshapes": 3809,
      "Ġadventures": 3810,
      "Ġinst": 3811,
      "ĠSav": 3812,
      "ĠMc": 3813,
      "ĠKiÃªn": 3814,
      "Ġsmooth": 3815,
      "Ġtacos": 3816,
      "Ġshrimp": 3817,
      "ĠthiÃªn": 3818,
      "Ġsavor": 3819,
      "inc": 3820,
      "ides": 3821,
      "ĠNháºŃt": 3822,
      "timate": 3823,
      "Ġstrategy": 3824,
      "Ġinteraction": 3825,
      "Ġleisurely": 3826,
      "ĠPuerto": 3827,
      "yme": 3828,
      "ĠbÆ¡i": 3829,
      "Ġold": 3830,
      "ĠSanta": 3831,
      "ople": 3832,
      "Ġchildren": 3833,
      "ura": 3834,
      "Ġmach": 3835,
      "Ġpast": 3836,
      "icro": 3837,
      "Ġdiscuss": 3838,
      "ĠPacific": 3839,
      "eb": 3840,
      "įn": 3841,
      "ĠRa": 3842,
      "Ġlistens": 3843,
      "Chris": 3844,
      "Ġphysical": 3845,
      "ĠHills": 3846,
      "Ġquin": 3847,
      "timately": 3848,
      "ĠIndian": 3849,
      "Ro": 3850,
      "west": 3851,
      "ĠdÆ°á»¡ng": 3852,
      "Ġná»Ļi": 3853,
      "áº¡ch": 3854,
      "ĠCenter": 3855,
      "ught": 3856,
      "ĠWilliam": 3857,
      "Ġreflective": 3858,
      "Ġgroups": 3859,
      "iplinary": 3860,
      "Ġdemean": 3861,
      "Ġdeadlines": 3862,
      "disciplinary": 3863,
      "Ġdemeanor": 3864,
      "ĠSat": 3865,
      "ĠSte": 3866,
      "Ġret": 3867,
      "tend": 3868,
      "Ġcurates": 3869,
      "amese": 3870,
      "Ġother": 3871,
      "ĠSavannah": 3872,
      "ĵn": 3873,
      "Ġconcer": 3874,
      "ĠGrand": 3875,
      "ĠRed": 3876,
      "Ġcaptures": 3877,
      "Ġthá»ĭt": 3878,
      "Ġhobby": 3879,
      "Ġscienti": 3880,
      "Ġcredential": 3881,
      "ĠGeorgia": 3882,
      "of": 3883,
      "Ġbiáº¿n": 3884,
      "ustin": 3885,
      "ĠMil": 3886,
      "Ġuse": 3887,
      "Ġprogramming": 3888,
      "Ġremains": 3889,
      "Ġach": 3890,
      "ino": 3891,
      "Ġless": 3892,
      "Ġpiz": 3893,
      "ĠÄĳáº¡t": 3894,
      "Ġenerge": 3895,
      "ĠGreat": 3896,
      "Ġindustrial": 3897,
      "Ġconduc": 3898,
      "ĠVietnamese": 3899,
      "iking": 3900,
      "ote": 3901,
      "Ġpal": 3902,
      "Ġbarb": 3903,
      "ĠtoÃ¡n": 3904,
      "ĠngÃ´i": 3905,
      "udly": 3906,
      "ĠÄĳÃ¡nh": 3907,
      "Ġrelations": 3908,
      "Ġblue": 3909,
      "Ġprepares": 3910,
      "Ġtowns": 3911,
      "Ġunders": 3912,
      "Ġoversee": 3913,
      "Ġmanufacturing": 3914,
      "Ġthyme": 3915,
      "Ġline": 3916,
      "Ġwin": 3917,
      "Ġgar": 3918,
      "life": 3919,
      "Ġcardio": 3920,
      "Ġassociate": 3921,
      "gress": 3922,
      "oons": 3923,
      "entry": 3924,
      "ĠHiáº¿u": 3925,
      "Ġfeed": 3926,
      "Ġmeditation": 3927,
      "Ġsharp": 3928,
      "Ġavoc": 3929,
      "Ġphil": 3930,
      "Ġpháº£i": 3931,
      "Ġoral": 3932,
      "pport": 3933,
      "nited": 3934,
      "Ġsongs": 3935,
      "ne": 3936,
      "Ġpass": 3937,
      "ĠTiÃªn": 3938,
      "ĠCommun": 3939,
      "Ġapplies": 3940,
      "Ġcapturing": 3941,
      "Ġensures": 3942,
      "Ġgenerations": 3943,
      "Ġhuman": 3944,
      "generational": 3945,
      "Ġphilos": 3946,
      "aj": 3947,
      "bal": 3948,
      "Ġlá»Ļi": 3949,
      "ĠÄĳá»ķi": 3950,
      "ĠUnited": 3951,
      "ĠBlue": 3952,
      "Ġenthusiastic": 3953,
      "ĠSatur": 3954,
      "Ġphilosoph": 3955,
      "bies": 3956,
      "such": 3957,
      "tual": 3958,
      "Ġdr": 3959,
      "ĠTÃ¹ng": 3960,
      "ĠGu": 3961,
      "Ġexplores": 3962,
      "almon": 3963,
      "Ġfluency": 3964,
      "Ġenergetic": 3965,
      "Ġsalmon": 3966,
      "erve": 3967,
      "Ġstar": 3968,
      "ĠBar": 3969,
      "ĠThá»§": 3970,
      "Ġheo": 3971,
      "Ġtá»¥c": 3972,
      "áº¯t": 3973,
      "Ġstudio": 3974,
      "Ġhoned": 3975,
      "Ġindustry": 3976,
      "Ġhobbies": 3977,
      "Ġbachelor": 3978,
      "ret": 3979,
      "Ġtours": 3980,
      "Ġphá»©c": 3981,
      "Ġsoftball": 3982,
      "Ġbarbec": 3983,
      "Ġtable": 3984,
      "Ġpair": 3985,
      "Ġfire": 3986,
      "Ġgl": 3987,
      "Ġnurs": 3988,
      "head": 3989,
      "ĠMich": 3990,
      "ĠliÃªn": 3991,
      "aterial": 3992,
      "Ġquietly": 3993,
      "Ġfoods": 3994,
      "trip": 3995,
      "Ġpride": 3996,
      "Ġapplying": 3997,
      "ĠnuÃ´i": 3998,
      "Ġnetwork": 3999,
      "cing": 4000,
      "Ġsl": 4001,
      "ĠHoÃłng": 4002,
      "Ġprogress": 4003,
      "Ġone": 4004,
      "ĠVy": 4005,
      "Ġmeets": 4006,
      "Ġrecogn": 4007,
      "Ġconsult": 4008,
      "Ġpickup": 4009,
      "Ġpizza": 4010,
      "ple": 4011,
      "self": 4012,
      "áº³": 4013,
      "Ġchang": 4014,
      "unes": 4015,
      "ĠPar": 4016,
      "Ġrang": 4017,
      "Ġserve": 4018,
      "John": 4019,
      "bean": 4020,
      "Ġmatches": 4021,
      "style": 4022,
      "Ġapple": 4023,
      "Ġkeeping": 4024,
      "Ġenvironments": 4025,
      "Ġaftern": 4026,
      "Ġrhythms": 4027,
      "Ġgrilled": 4028,
      "Ġembraces": 4029,
      "Ġpotlucks": 4030,
      "bling": 4031,
      "side": 4032,
      "Ġit": 4033,
      "Ġtem": 4034,
      "Ġláº¯p": 4035,
      "ults": 4036,
      "ĠCaro": 4037,
      "ĠMiáº¿u": 4038,
      "lina": 4039,
      "Ġrigorous": 4040,
      "ĠâĢ": 4041,
      "asting": 4042,
      "enced": 4043,
      "Ġnarratives": 4044,
      "Ġtake": 4045,
      "Ġmur": 4046,
      "Ġdáº«n": 4047,
      "Ġvisiting": 4048,
      "Ġunwind": 4049,
      "Ġprotoc": 4050,
      "Ġmurals": 4051,
      "ler": 4052,
      "lands": 4053,
      "ancy": 4054,
      "Ġsolace": 4055,
      "Ġflavor": 4056,
      "Ġcrossword": 4057,
      "ev": 4058,
      "ĠÄĳáº¡o": 4059,
      "ape": 4060,
      "Ġteacher": 4061,
      "Ġliteracy": 4062,
      "Ġdevo": 4063,
      "Ġdáº¡ng": 4064,
      "ces": 4065,
      "anding": 4066,
      "ĠRock": 4067,
      "Ġlaunching": 4068,
      "Ġ\"": 4069,
      "reg": 4070,
      "ela": 4071,
      "hetic": 4072,
      "Ġnonpro": 4073,
      "Ġinstall": 4074,
      "Ġbow": 4075,
      "Ġflo": 4076,
      "ĠWal": 4077,
      "ventional": 4078,
      "Ġpost": 4079,
      "Ġproduction": 4080,
      "Ġinformal": 4081,
      "Ġancestry": 4082,
      "áº³ng": 4083,
      "Ġafternoons": 4084,
      "rip": 4085,
      "ĠchÆ°Æ¡ng": 4086,
      "ĠVÆ°á»Ŀn": 4087,
      "ĠWest": 4088,
      "ĠFestiv": 4089,
      "ĠPhil": 4090,
      "Ġknack": 4091,
      "Ġpeople": 4092,
      "field": 4093,
      "Ġelectrical": 4094,
      "Ġconsistently": 4095
    },
    "merges": [
      [
        "á",
        "»"
      ],
      [
        "Ġ",
        "t"
      ],
      [
        "n",
        "g"
      ],
      [
        "Ġ",
        "c"
      ],
      [
        "Ġ",
        "a"
      ],
      [
        "Ġt",
        "h"
      ],
      [
        "Ġ",
        "s"
      ],
      [
        "á",
        "º"
      ],
      [
        "e",
        "r"
      ],
      [
        "n",
        "d"
      ],
      [
        "Ġ",
        "h"
      ],
      [
        "t",
        "i"
      ],
      [
        "e",
        "s"
      ],
      [
        "Ã",
        "ł"
      ],
      [
        "Ġ",
        "v"
      ],
      [
        "i",
        "n"
      ],
      [
        "a",
        "l"
      ],
      [
        "e",
        "n"
      ],
      [
        "o",
        "n"
      ],
      [
        "Ġ",
        "l"
      ],
      [
        "o",
        "r"
      ],
      [
        "Ġ",
        "m"
      ],
      [
        "Ġ",
        "p"
      ],
      [
        "Ġ",
        "b"
      ],
      [
        "i",
        "ng"
      ],
      [
        "n",
        "h"
      ],
      [
        "Ġ",
        "Ä"
      ],
      [
        "Ġa",
        "nd"
      ],
      [
        "Ã",
        "¡"
      ],
      [
        "i",
        "t"
      ],
      [
        "a",
        "n"
      ],
      [
        "r",
        "e"
      ],
      [
        "ĠÄ",
        "ĳ"
      ],
      [
        "Ġ",
        "w"
      ],
      [
        "r",
        "o"
      ],
      [
        "Ġ",
        "f"
      ],
      [
        "Ġ",
        "d"
      ],
      [
        "c",
        "h"
      ],
      [
        "i",
        "s"
      ],
      [
        "a",
        "r"
      ],
      [
        "Ġ",
        "g"
      ],
      [
        "l",
        "e"
      ],
      [
        "i",
        "á»"
      ],
      [
        "â",
        "Ģ"
      ],
      [
        "Ġth",
        "e"
      ],
      [
        "a",
        "t"
      ],
      [
        "Ġv",
        "Ãł"
      ],
      [
        "Æ",
        "°"
      ],
      [
        "Ġ",
        "in"
      ],
      [
        "Ġ",
        "o"
      ],
      [
        "i",
        "c"
      ],
      [
        "á»",
        "Ļ"
      ],
      [
        "r",
        "a"
      ],
      [
        "Ã",
        "³"
      ],
      [
        "Ġc",
        "Ã¡"
      ],
      [
        "Ġ",
        "n"
      ],
      [
        "Ġ",
        "k"
      ],
      [
        "a",
        "m"
      ],
      [
        "ĠcÃ¡",
        "c"
      ],
      [
        "âĢ",
        "ĳ"
      ],
      [
        "Ġt",
        "o"
      ],
      [
        "e",
        "d"
      ],
      [
        "a",
        "s"
      ],
      [
        "ti",
        "on"
      ],
      [
        "en",
        "t"
      ],
      [
        "Ġc",
        "o"
      ],
      [
        "Ġ",
        "e"
      ],
      [
        "i",
        "l"
      ],
      [
        "u",
        "r"
      ],
      [
        "Ġ",
        "nh"
      ],
      [
        "iá»",
        "ĩ"
      ],
      [
        "Ġc",
        "h"
      ],
      [
        "á»",
        "ĳ"
      ],
      [
        "Ġt",
        "r"
      ],
      [
        "Ġo",
        "f"
      ],
      [
        "Ã",
        "´"
      ],
      [
        "e",
        "l"
      ],
      [
        "e",
        "t"
      ],
      [
        "u",
        "s"
      ],
      [
        "Ġ",
        "H"
      ],
      [
        "o",
        "l"
      ],
      [
        "i",
        "a"
      ],
      [
        "áº",
        "¡"
      ],
      [
        "u",
        "n"
      ],
      [
        "it",
        "h"
      ],
      [
        "Ġw",
        "ith"
      ],
      [
        "Æ°",
        "á»"
      ],
      [
        "Ã",
        "ª"
      ],
      [
        "Ġ",
        "ng"
      ],
      [
        "Ġ",
        "S"
      ],
      [
        "Ã",
        "Ń"
      ],
      [
        "u",
        "l"
      ],
      [
        "áº",
        "¿"
      ],
      [
        "Ġco",
        "m"
      ],
      [
        "it",
        "y"
      ],
      [
        "Ġ",
        "T"
      ],
      [
        "q",
        "u"
      ],
      [
        "Ġp",
        "h"
      ],
      [
        "áº",
        "£"
      ],
      [
        "Ġ",
        "C"
      ],
      [
        "v",
        "e"
      ],
      [
        "Ġ",
        "re"
      ],
      [
        "i",
        "m"
      ],
      [
        "Ġs",
        "t"
      ],
      [
        "á»",
        "ĭ"
      ],
      [
        "Ġw",
        "h"
      ],
      [
        "ti",
        "c"
      ],
      [
        "ĥ",
        "n"
      ],
      [
        "l",
        "y"
      ],
      [
        "u",
        "y"
      ],
      [
        "Ġ",
        "A"
      ],
      [
        "Ġc",
        "Ã³"
      ],
      [
        "Ġth",
        "á»"
      ],
      [
        "ro",
        "ng"
      ],
      [
        "Ġk",
        "h"
      ],
      [
        "ÃŃ",
        "ch"
      ],
      [
        "Ġf",
        "or"
      ],
      [
        "Æ",
        "¡"
      ],
      [
        "er",
        "s"
      ],
      [
        "Ġ",
        "qu"
      ],
      [
        "o",
        "c"
      ],
      [
        "Ġg",
        "ia"
      ],
      [
        "t",
        "s"
      ],
      [
        "ti",
        "ng"
      ],
      [
        "Ġ",
        "N"
      ],
      [
        "Ġv",
        "á»"
      ],
      [
        "i",
        "d"
      ],
      [
        "a",
        "tion"
      ],
      [
        "h",
        "e"
      ],
      [
        "Ġth",
        "ÃŃch"
      ],
      [
        "Ġh",
        "er"
      ],
      [
        "Ġl",
        "Ãł"
      ],
      [
        "i",
        "g"
      ],
      [
        "Ġh",
        "o"
      ],
      [
        "Ġh",
        "is"
      ],
      [
        "i",
        "r"
      ],
      [
        "á»",
        "ķ"
      ],
      [
        "e",
        "c"
      ],
      [
        "Ġe",
        "x"
      ],
      [
        "Ġ",
        "r"
      ],
      [
        "Ã´",
        "ng"
      ],
      [
        "Ġ",
        "M"
      ],
      [
        "a",
        "d"
      ],
      [
        "Ġt",
        "rong"
      ],
      [
        "áº",
        "Ń"
      ],
      [
        "o",
        "s"
      ],
      [
        "a",
        "g"
      ],
      [
        "Æ°á»",
        "Ŀ"
      ],
      [
        "c",
        "e"
      ],
      [
        "i",
        "on"
      ],
      [
        "u",
        "t"
      ],
      [
        "Ġth",
        "am"
      ],
      [
        "á»ĳ",
        "ng"
      ],
      [
        "Ġp",
        "ro"
      ],
      [
        "ĠÄĳ",
        "á»"
      ],
      [
        "Ġcom",
        "m"
      ],
      [
        "Ã",
        "¬"
      ],
      [
        "i",
        "p"
      ],
      [
        "Ľ",
        "i"
      ],
      [
        "Ġ",
        "B"
      ],
      [
        "Ġng",
        "h"
      ],
      [
        "Å",
        "©"
      ],
      [
        "Ã",
        "¢"
      ],
      [
        "á»Ļ",
        "t"
      ],
      [
        "nd",
        "s"
      ],
      [
        "á»Ļ",
        "i"
      ],
      [
        "Ġcomm",
        "un"
      ],
      [
        "Ġ",
        "y"
      ],
      [
        "Ġm",
        "á»Ļt"
      ],
      [
        "Ġs",
        "á»"
      ],
      [
        "es",
        "s"
      ],
      [
        "áº",
        "¥"
      ],
      [
        "a",
        "y"
      ],
      [
        "uy",
        "á»"
      ],
      [
        "Ġh",
        "á»"
      ],
      [
        "Ġa",
        "t"
      ],
      [
        "e",
        "m"
      ],
      [
        "Ġl",
        "á»"
      ],
      [
        "Ġc",
        "Å©"
      ],
      [
        "Ãª",
        "n"
      ],
      [
        "Ġ",
        "x"
      ],
      [
        "o",
        "d"
      ],
      [
        "Ġex",
        "p"
      ],
      [
        "t",
        "er"
      ],
      [
        "in",
        "h"
      ],
      [
        "ĠcÅ©",
        "ng"
      ],
      [
        "r",
        "i"
      ],
      [
        "Ġnh",
        "Æ°"
      ],
      [
        "a",
        "c"
      ],
      [
        "Ġcommun",
        "ity"
      ],
      [
        "o",
        "w"
      ],
      [
        "ti",
        "ve"
      ],
      [
        "i",
        "le"
      ],
      [
        "u",
        "re"
      ],
      [
        "Ġ",
        "L"
      ],
      [
        "Ġt",
        "ra"
      ],
      [
        "Ġa",
        "s"
      ],
      [
        "k",
        "e"
      ],
      [
        "á»Ļ",
        "ng"
      ],
      [
        "i",
        "áº¿"
      ],
      [
        "t",
        "h"
      ],
      [
        "áº",
        "§"
      ],
      [
        "Ġb",
        "u"
      ],
      [
        "ģ",
        "n"
      ],
      [
        "Ġ",
        "en"
      ],
      [
        "a",
        "in"
      ],
      [
        "u",
        "p"
      ],
      [
        "Ġc",
        "á»"
      ],
      [
        "iá»ĩ",
        "c"
      ],
      [
        "ĠT",
        "h"
      ],
      [
        "or",
        "k"
      ],
      [
        "e",
        "e"
      ],
      [
        "Ġ",
        "P"
      ],
      [
        "Ġth",
        "at"
      ],
      [
        "á»ķ",
        "i"
      ],
      [
        "t",
        "e"
      ],
      [
        "Ġ",
        "ro"
      ],
      [
        "Ġs",
        "p"
      ],
      [
        "Ġa",
        "l"
      ],
      [
        "Ġthá»",
        "ĥ"
      ],
      [
        "a",
        "b"
      ],
      [
        "áº",
        "·"
      ],
      [
        "t",
        "o"
      ],
      [
        "Ä",
        "ĥ"
      ],
      [
        "ar",
        "d"
      ],
      [
        "Ġp",
        "l"
      ],
      [
        "at",
        "e"
      ],
      [
        "Ġc",
        "on"
      ],
      [
        "Ġa",
        "r"
      ],
      [
        "Ġh",
        "á»Ļi"
      ],
      [
        "Ġwh",
        "ile"
      ],
      [
        "Ġ",
        "G"
      ],
      [
        "Ä",
        "ĥn"
      ],
      [
        "Æ°á»Ŀ",
        "ng"
      ],
      [
        "Ġv",
        "iá»ĩc"
      ],
      [
        "Ġa",
        "n"
      ],
      [
        "Ġl",
        "e"
      ],
      [
        "uyá»",
        "ģn"
      ],
      [
        "Ġt",
        "e"
      ],
      [
        "Ġ",
        "is"
      ],
      [
        "m",
        "ent"
      ],
      [
        "oc",
        "al"
      ],
      [
        "ĠA",
        "nh"
      ],
      [
        "al",
        "l"
      ],
      [
        "Ġl",
        "ocal"
      ],
      [
        "áº·",
        "c"
      ],
      [
        "©",
        "c"
      ],
      [
        "Ġtr",
        "uyá»ģn"
      ],
      [
        "v",
        "er"
      ],
      [
        "i",
        "tion"
      ],
      [
        "Ġ",
        "on"
      ],
      [
        "Ġn",
        "e"
      ],
      [
        "á»",
        "Ł"
      ],
      [
        "áº¡",
        "i"
      ],
      [
        "Ġth",
        "á»ĳng"
      ],
      [
        "ig",
        "h"
      ],
      [
        "Ãł",
        "i"
      ],
      [
        "ĠÄ",
        "ĥn"
      ],
      [
        "Ã¬",
        "nh"
      ],
      [
        "iá»ĩ",
        "t"
      ],
      [
        "Ġvá»",
        "Ľi"
      ],
      [
        "o",
        "k"
      ],
      [
        "Ġg",
        "i"
      ],
      [
        "u",
        "c"
      ],
      [
        "t",
        "ur"
      ],
      [
        "á»",
        "¯"
      ],
      [
        "Æ°",
        "Æ¡"
      ],
      [
        "Ġl",
        "i"
      ],
      [
        "Ġlá»",
        "ħ"
      ],
      [
        "y",
        "s"
      ],
      [
        "Ġh",
        "e"
      ],
      [
        "ti",
        "v"
      ],
      [
        "Ã",
        "²"
      ],
      [
        "o",
        "ng"
      ],
      [
        "Ġs",
        "h"
      ],
      [
        "a",
        "p"
      ],
      [
        "Ġd",
        "á»"
      ],
      [
        "is",
        "h"
      ],
      [
        "il",
        "y"
      ],
      [
        "áº§",
        "n"
      ],
      [
        "Ġcá»",
        "§"
      ],
      [
        "Ġcá»§",
        "a"
      ],
      [
        "j",
        "o"
      ],
      [
        "âĢ",
        "Ļ"
      ],
      [
        "i",
        "z"
      ],
      [
        "o",
        "m"
      ],
      [
        "Ġc",
        "ul"
      ],
      [
        "ĠÄĳ",
        "áº·c"
      ],
      [
        "áº£",
        "n"
      ],
      [
        "es",
        "t"
      ],
      [
        "Ġc",
        "l"
      ],
      [
        "o",
        "us"
      ],
      [
        "Æ°Æ¡",
        "ng"
      ],
      [
        "il",
        "l"
      ],
      [
        "Ġ",
        "D"
      ],
      [
        "Äĥ",
        "ng"
      ],
      [
        "Ġ",
        "or"
      ],
      [
        "u",
        "á»ĳ"
      ],
      [
        "ĠH",
        "e"
      ],
      [
        "i",
        "es"
      ],
      [
        "t",
        "en"
      ],
      [
        "Ġm",
        "Ã³"
      ],
      [
        "ra",
        "c"
      ],
      [
        "į",
        "c"
      ],
      [
        "Ġexp",
        "er"
      ],
      [
        "Ãª",
        "u"
      ],
      [
        "a",
        "nd"
      ],
      [
        "Ġw",
        "ork"
      ],
      [
        "Ġf",
        "am"
      ],
      [
        "Ãł",
        "nh"
      ],
      [
        "ĠÄĳ",
        "á»Ļng"
      ],
      [
        "ion",
        "al"
      ],
      [
        "Ġ",
        "V"
      ],
      [
        "an",
        "c"
      ],
      [
        "Ġcom",
        "p"
      ],
      [
        "p",
        "p"
      ],
      [
        "Ġb",
        "iá»ĩt"
      ],
      [
        "Ġngh",
        "iá»ĩ"
      ],
      [
        "Ġthe",
        "y"
      ],
      [
        "Ġc",
        "Ã´ng"
      ],
      [
        "ĵ",
        "ng"
      ],
      [
        "u",
        "g"
      ],
      [
        "a",
        "v"
      ],
      [
        "Ã¢",
        "n"
      ],
      [
        "Ġth",
        "Æ°á»Ŀng"
      ],
      [
        "ĠmÃ³",
        "n"
      ],
      [
        "o",
        "p"
      ],
      [
        "ic",
        "al"
      ],
      [
        "f",
        "or"
      ],
      [
        "Ġs",
        "he"
      ],
      [
        "Ġfam",
        "ily"
      ],
      [
        "ĠS",
        "he"
      ],
      [
        "Ġth",
        "u"
      ],
      [
        "Ġ",
        "R"
      ],
      [
        "Ã³",
        "a"
      ],
      [
        "iá»ĩ",
        "n"
      ],
      [
        "Ġho",
        "áº¡"
      ],
      [
        "Ġngh",
        "á»"
      ],
      [
        "a",
        "ch"
      ],
      [
        "Ġa",
        "c"
      ],
      [
        "Ġy",
        "Ãªu"
      ],
      [
        "Ġl",
        "o"
      ],
      [
        "Ġp",
        "ar"
      ],
      [
        "as",
        "s"
      ],
      [
        "u",
        "b"
      ],
      [
        "tur",
        "al"
      ],
      [
        "Ġch",
        "á»"
      ],
      [
        "i",
        "ti"
      ],
      [
        "Ġm",
        "á»"
      ],
      [
        "Ġn",
        "Äĥng"
      ],
      [
        "ar",
        "y"
      ],
      [
        "±",
        "c"
      ],
      [
        "s",
        "t"
      ],
      [
        "á»ĭ",
        "ch"
      ],
      [
        "Ġsá»",
        "±"
      ],
      [
        "Ġhá»",
        "įc"
      ],
      [
        "Ġv",
        "Äĥn"
      ],
      [
        "a",
        "o"
      ],
      [
        "i",
        "al"
      ],
      [
        "Ġkh",
        "Ã¡"
      ],
      [
        "ĠÄĳá»",
        "ĥ"
      ],
      [
        "Ġc",
        "ur"
      ],
      [
        "an",
        "ce"
      ],
      [
        "Ġh",
        "Ã³a"
      ],
      [
        "Ġthe",
        "ir"
      ],
      [
        "áº¿",
        "n"
      ],
      [
        "Ġb",
        "Ã¡"
      ],
      [
        "Ġa",
        "d"
      ],
      [
        "á»¯",
        "ng"
      ],
      [
        "t",
        "or"
      ],
      [
        "Ġp",
        "re"
      ],
      [
        "Ġt",
        "á»"
      ],
      [
        "d",
        "ition"
      ],
      [
        "áºŃ",
        "t"
      ],
      [
        "Ġbu",
        "á»ķi"
      ],
      [
        "ĠvÃł",
        "o"
      ],
      [
        "Ã",
        "¹"
      ],
      [
        "Ġph",
        "Ã¡"
      ],
      [
        "c",
        "as"
      ],
      [
        "v",
        "el"
      ],
      [
        "Ġpl",
        "an"
      ],
      [
        "Ġm",
        "e"
      ],
      [
        "Ġb",
        "le"
      ],
      [
        "ug",
        "h"
      ],
      [
        "s",
        "o"
      ],
      [
        "rac",
        "tic"
      ],
      [
        "g",
        "e"
      ],
      [
        "Ã³",
        "ng"
      ],
      [
        "Ġs",
        "k"
      ],
      [
        "Ġp",
        "ractic"
      ],
      [
        "Ġc",
        "re"
      ],
      [
        "iá»",
        "ĥ"
      ],
      [
        "Ġhoáº¡",
        "t"
      ],
      [
        "p",
        "h"
      ],
      [
        "Ġ",
        "ra"
      ],
      [
        "a",
        "tive"
      ],
      [
        "in",
        "e"
      ],
      [
        "al",
        "s"
      ],
      [
        "i",
        "b"
      ],
      [
        "ent",
        "s"
      ],
      [
        "en",
        "ce"
      ],
      [
        "u",
        "m"
      ],
      [
        "Ãł",
        "ng"
      ],
      [
        "ti",
        "s"
      ],
      [
        "u",
        "ng"
      ],
      [
        "Ġnh",
        "á»¯ng"
      ],
      [
        "Ġb",
        "o"
      ],
      [
        "ag",
        "e"
      ],
      [
        "an",
        "t"
      ],
      [
        "m",
        "er"
      ],
      [
        "A",
        "nh"
      ],
      [
        "o",
        "od"
      ],
      [
        "u",
        "d"
      ],
      [
        "uá»ĳ",
        "n"
      ],
      [
        "Ġen",
        "jo"
      ],
      [
        "áºŃ",
        "p"
      ],
      [
        "o",
        "ut"
      ],
      [
        "Æ°á»Ŀ",
        "i"
      ],
      [
        "k",
        "s"
      ],
      [
        "uy",
        "Ãªn"
      ],
      [
        "áº£",
        "i"
      ],
      [
        "ħ",
        "n"
      ],
      [
        "Ġa",
        "pp"
      ],
      [
        "ic",
        "an"
      ],
      [
        "f",
        "ic"
      ],
      [
        "Ġt",
        "áº¡i"
      ],
      [
        "Ġcul",
        "tural"
      ],
      [
        "ĠÄ",
        "Ĳ"
      ],
      [
        "o",
        "g"
      ],
      [
        "Ġd",
        "e"
      ],
      [
        "á»",
        "¹"
      ],
      [
        "Æ¡",
        "i"
      ],
      [
        "k",
        "ing"
      ],
      [
        "Ġal",
        "so"
      ],
      [
        "n",
        "ing"
      ],
      [
        "ĠÄĳá»",
        "ĵng"
      ],
      [
        "Ġl",
        "á»ĭch"
      ],
      [
        "e",
        "ar"
      ],
      [
        "a",
        "nh"
      ],
      [
        "u",
        "al"
      ],
      [
        "Ġt",
        "iáº¿"
      ],
      [
        "Ġ",
        "im"
      ],
      [
        "Ġ",
        "K"
      ],
      [
        "Ġb",
        "y"
      ],
      [
        "at",
        "es"
      ],
      [
        "Ġr",
        "es"
      ],
      [
        "ĠN",
        "g"
      ],
      [
        "Ġl",
        "Ã"
      ],
      [
        "er",
        "v"
      ],
      [
        "l",
        "or"
      ],
      [
        "Ġng",
        "Æ°á»Ŀi"
      ],
      [
        "Ġ",
        "á»Ł"
      ],
      [
        "Ġnghá»",
        "ĩ"
      ],
      [
        "Ġw",
        "ee"
      ],
      [
        "ĠbÃ¡",
        "nh"
      ],
      [
        "u",
        "ch"
      ],
      [
        "Ġ",
        "W"
      ],
      [
        "t",
        "ain"
      ],
      [
        "Ġthu",
        "áºŃt"
      ],
      [
        "Ġa",
        "nh"
      ],
      [
        "iá»",
        "ģ"
      ],
      [
        "Ġenjo",
        "ys"
      ],
      [
        "Ġph",
        "á»ĳ"
      ],
      [
        "c",
        "cas"
      ],
      [
        "Ġsá»",
        "Ń"
      ],
      [
        "Ġtra",
        "dition"
      ],
      [
        "Ġk",
        "á»¹"
      ],
      [
        "h",
        "er"
      ],
      [
        "Ġst",
        "r"
      ],
      [
        "m",
        "e"
      ],
      [
        "ccas",
        "ional"
      ],
      [
        "Ġt",
        "u"
      ],
      [
        "Ġs",
        "m"
      ],
      [
        "Ġre",
        "g"
      ],
      [
        "i",
        "nd"
      ],
      [
        "a",
        "re"
      ],
      [
        "Ġcur",
        "i"
      ],
      [
        "g",
        "an"
      ],
      [
        "Ġ",
        "F"
      ],
      [
        "or",
        "s"
      ],
      [
        "o",
        "t"
      ],
      [
        "le",
        "c"
      ],
      [
        "Ġe",
        "v"
      ],
      [
        "u",
        "nd"
      ],
      [
        "Ġs",
        "á»ĳng"
      ],
      [
        "áºŃ",
        "n"
      ],
      [
        "l",
        "ow"
      ],
      [
        "Ġo",
        "ccasional"
      ],
      [
        "iti",
        "es"
      ],
      [
        "id",
        "e"
      ],
      [
        "ĠC",
        "Ã´"
      ],
      [
        "g",
        "ra"
      ],
      [
        "Ġin",
        "to"
      ],
      [
        "p",
        "or"
      ],
      [
        "ing",
        "s"
      ],
      [
        "Ġmá»",
        "Ľi"
      ],
      [
        "Ġb",
        "al"
      ],
      [
        "Ġar",
        "t"
      ],
      [
        "Ġs",
        "uch"
      ],
      [
        "gan",
        "iz"
      ],
      [
        "Ġs",
        "ol"
      ],
      [
        "Ġk",
        "inh"
      ],
      [
        "Æ°á»",
        "£"
      ],
      [
        "ti",
        "n"
      ],
      [
        "Ġdá»",
        "¥"
      ],
      [
        "Ġ",
        "E"
      ],
      [
        "Ġ",
        "O"
      ],
      [
        "t",
        "ure"
      ],
      [
        "ab",
        "le"
      ],
      [
        "áº",
        "¯"
      ],
      [
        "áº¥",
        "u"
      ],
      [
        "is",
        "t"
      ],
      [
        "ĠÄĳ",
        "Ã¡"
      ],
      [
        "Ġm",
        "an"
      ],
      [
        "ĠÄĳ",
        "á»ĭ"
      ],
      [
        "Ġm",
        "uá»ĳn"
      ],
      [
        "ac",
        "k"
      ],
      [
        "Ġb",
        "Ã³ng"
      ],
      [
        "Ġnh",
        "Ãł"
      ],
      [
        "r",
        "es"
      ],
      [
        "er",
        "e"
      ],
      [
        "Ġof",
        "ten"
      ],
      [
        "v",
        "es"
      ],
      [
        "l",
        "es"
      ],
      [
        "os",
        "ity"
      ],
      [
        "Ġd",
        "es"
      ],
      [
        "l",
        "ing"
      ],
      [
        "Ġ",
        "up"
      ],
      [
        "r",
        "y"
      ],
      [
        "Ġnghiá»ĩ",
        "m"
      ],
      [
        "ro",
        "m"
      ],
      [
        "ĠlÃ",
        "½"
      ],
      [
        "Ġcuri",
        "osity"
      ],
      [
        "Ġhis",
        "tor"
      ],
      [
        "Ġs",
        "oc"
      ],
      [
        "Ã´",
        "n"
      ],
      [
        "Ġs",
        "ch"
      ],
      [
        "Ġm",
        "od"
      ],
      [
        "Ġe",
        "m"
      ],
      [
        "áº",
        "©"
      ],
      [
        "a",
        "ng"
      ],
      [
        "ard",
        "en"
      ],
      [
        "i",
        "Ãªn"
      ],
      [
        "Ġs",
        "en"
      ],
      [
        "Ã",
        "º"
      ],
      [
        "Ġs",
        "c"
      ],
      [
        "Ġb",
        "as"
      ],
      [
        "s",
        "p"
      ],
      [
        "Ġor",
        "ganiz"
      ],
      [
        "ĠÄĳ",
        "Ã¬nh"
      ],
      [
        "Ġwh",
        "o"
      ],
      [
        "i",
        "e"
      ],
      [
        "m",
        "s"
      ],
      [
        "ĠB",
        "Ãł"
      ],
      [
        "ation",
        "s"
      ],
      [
        "Ġm",
        "ent"
      ],
      [
        "Ġth",
        "Ãłnh"
      ],
      [
        "Ġd",
        "u"
      ],
      [
        "j",
        "ec"
      ],
      [
        "or",
        "y"
      ],
      [
        "Ġf",
        "rom"
      ],
      [
        "ill",
        "s"
      ],
      [
        "ĠP",
        "h"
      ],
      [
        "tic",
        "ul"
      ],
      [
        "Ġte",
        "ch"
      ],
      [
        "on",
        "al"
      ],
      [
        "Ġ",
        "I"
      ],
      [
        "Ġqu",
        "áº£n"
      ],
      [
        "Ġg",
        "arden"
      ],
      [
        "Ġt",
        "á»ķ"
      ],
      [
        "ĠÄĳ",
        "áº¿n"
      ],
      [
        "ĠlÃł",
        "m"
      ],
      [
        "Ġs",
        "e"
      ],
      [
        "Ġdá»",
        "±"
      ],
      [
        "en",
        "c"
      ],
      [
        "Ġchá»",
        "©c"
      ],
      [
        "Ġlá»",
        "Ľ"
      ],
      [
        "Ã¡",
        "t"
      ],
      [
        "t",
        "y"
      ],
      [
        "Ġ",
        "J"
      ],
      [
        "il",
        "d"
      ],
      [
        "i",
        "v"
      ],
      [
        "á»Ļ",
        "c"
      ],
      [
        "as",
        "t"
      ],
      [
        "ay",
        "s"
      ],
      [
        "Ġsm",
        "all"
      ],
      [
        "a",
        "ting"
      ],
      [
        "Ġli",
        "ke"
      ],
      [
        "Ġc",
        "u"
      ],
      [
        "Ġs",
        "o"
      ],
      [
        "Ã²",
        "n"
      ],
      [
        "Ġwee",
        "ke"
      ],
      [
        "tic",
        "ip"
      ],
      [
        "Ġpro",
        "jec"
      ],
      [
        "Ġh",
        "Ãłng"
      ],
      [
        "Ġin",
        "ter"
      ],
      [
        "Ġre",
        "l"
      ],
      [
        "Ġa",
        "b"
      ],
      [
        "Ġx",
        "uyÃªn"
      ],
      [
        "ur",
        "s"
      ],
      [
        "Ġpar",
        "ticip"
      ],
      [
        "ol",
        "d"
      ],
      [
        "e",
        "ti"
      ],
      [
        "Ġwh",
        "ere"
      ],
      [
        "el",
        "s"
      ],
      [
        "Ġpractic",
        "al"
      ],
      [
        "Ġth",
        "ao"
      ],
      [
        "Ŀ",
        "i"
      ],
      [
        "Ġvá»",
        "ģ"
      ],
      [
        "a",
        "i"
      ],
      [
        "g",
        "et"
      ],
      [
        "Ġn",
        "at"
      ],
      [
        "áº¿",
        "t"
      ],
      [
        "ĠH",
        "er"
      ],
      [
        "Ġn",
        "Æ¡i"
      ],
      [
        "i",
        "ch"
      ],
      [
        "Ġkh",
        "Ã´ng"
      ],
      [
        "i",
        "or"
      ],
      [
        "i",
        "an"
      ],
      [
        "Ġm",
        "us"
      ],
      [
        "i",
        "ence"
      ],
      [
        "Ġcl",
        "ass"
      ],
      [
        "ro",
        "ugh"
      ],
      [
        "Ġco",
        "ok"
      ],
      [
        "ĠC",
        "h"
      ],
      [
        "ĠTh",
        "á»ĭ"
      ],
      [
        "áº¡",
        "o"
      ],
      [
        "it",
        "s"
      ],
      [
        "u",
        "es"
      ],
      [
        "áº¥",
        "t"
      ],
      [
        "u",
        "e"
      ],
      [
        "ĠH",
        "Ãł"
      ],
      [
        "Ġqu",
        "an"
      ],
      [
        "i",
        "et"
      ],
      [
        "Æ°á»",
        "Ł"
      ],
      [
        "Æ°á»Ł",
        "ng"
      ],
      [
        "Ġlo",
        "ve"
      ],
      [
        "Ġc",
        "Ã´"
      ],
      [
        "Ġv",
        "ol"
      ],
      [
        "ip",
        "s"
      ],
      [
        "tion",
        "s"
      ],
      [
        "Ġf",
        "ol"
      ],
      [
        "Ġm",
        "ain"
      ],
      [
        "Ġch",
        "o"
      ],
      [
        "ĠkhÃ¡",
        "m"
      ],
      [
        "Ġtech",
        "n"
      ],
      [
        "iá»ģ",
        "u"
      ],
      [
        "Ġbal",
        "anc"
      ],
      [
        "e",
        "nds"
      ],
      [
        "or",
        "d"
      ],
      [
        "Ġkh",
        "u"
      ],
      [
        "Ġth",
        "rough"
      ],
      [
        "Ġh",
        "as"
      ],
      [
        "Ġexp",
        "lor"
      ],
      [
        "Ġle",
        "ad"
      ],
      [
        "un",
        "te"
      ],
      [
        "Ã",
        "¨"
      ],
      [
        "Ġg",
        "iá»"
      ],
      [
        "Ġo",
        "ut"
      ],
      [
        "v",
        "en"
      ],
      [
        "Ã",
        "£"
      ],
      [
        "Ġc",
        "á»Ļng"
      ],
      [
        "Ġs",
        "a"
      ],
      [
        "o",
        "ol"
      ],
      [
        "á»",
        "ı"
      ],
      [
        "Ġvá»",
        "±c"
      ],
      [
        "Ġn",
        "áº¥u"
      ],
      [
        "i",
        "re"
      ],
      [
        "Ġs",
        "up"
      ],
      [
        "Ġco",
        "l"
      ],
      [
        "ur",
        "ing"
      ],
      [
        "a",
        "k"
      ],
      [
        "f",
        "t"
      ],
      [
        "f",
        "f"
      ],
      [
        "at",
        "er"
      ],
      [
        "ĠÄĳá»ĭ",
        "a"
      ],
      [
        "ee",
        "p"
      ],
      [
        "Ġble",
        "nd"
      ],
      [
        "Ġdá»¥",
        "ng"
      ],
      [
        "Ġat",
        "te"
      ],
      [
        "Ã¹",
        "ng"
      ],
      [
        "c",
        "l"
      ],
      [
        "an",
        "s"
      ],
      [
        "Ã¢",
        "y"
      ],
      [
        "r",
        "ic"
      ],
      [
        "ĠH",
        "is"
      ],
      [
        "Ġvol",
        "unte"
      ],
      [
        "Ġnghiá»ĩ",
        "p"
      ],
      [
        "e",
        "x"
      ],
      [
        "áº©",
        "m"
      ],
      [
        "ar",
        "ly"
      ],
      [
        "Ġbu",
        "d"
      ],
      [
        "Ġ",
        "Ã¡"
      ],
      [
        "l",
        "o"
      ],
      [
        "Ġh",
        "im"
      ],
      [
        "Ġthá»",
        "©c"
      ],
      [
        "ig",
        "n"
      ],
      [
        "Ġtu",
        "á»ķi"
      ],
      [
        "Ġst",
        "rong"
      ],
      [
        "Ġre",
        "c"
      ],
      [
        "iá»ĥ",
        "u"
      ],
      [
        "Ġt",
        "áºŃp"
      ],
      [
        "a",
        "nds"
      ],
      [
        "ation",
        "al"
      ],
      [
        "o",
        "un"
      ],
      [
        "Ġexper",
        "im"
      ],
      [
        "iá»",
        "ĥn"
      ],
      [
        "âĢ",
        "Ķ"
      ],
      [
        "ĠN",
        "á»Ļi"
      ],
      [
        "ent",
        "er"
      ],
      [
        "Ġse",
        "as"
      ],
      [
        "Ġv",
        "is"
      ],
      [
        "Ġman",
        "ag"
      ],
      [
        "iáº¿",
        "t"
      ],
      [
        "ticul",
        "ous"
      ],
      [
        "Ġme",
        "ticulous"
      ],
      [
        "ic",
        "e"
      ],
      [
        "re",
        "am"
      ],
      [
        "i",
        "ent"
      ],
      [
        "Ġthá»",
        "Ŀi"
      ],
      [
        "Æ°á»£",
        "c"
      ],
      [
        "Ġ",
        "us"
      ],
      [
        "Ġac",
        "tiv"
      ],
      [
        "uyá»",
        "ħn"
      ],
      [
        "b",
        "all"
      ],
      [
        "Ġb",
        "Ãł"
      ],
      [
        "Ġho",
        "me"
      ],
      [
        "áº",
        "»"
      ],
      [
        "re",
        "e"
      ],
      [
        "Ġkh",
        "áº£"
      ],
      [
        "ĠÄĳ",
        "i"
      ],
      [
        "e",
        "w"
      ],
      [
        "áº¡",
        "n"
      ],
      [
        "p",
        "ec"
      ],
      [
        "áº¥",
        "n"
      ],
      [
        "b",
        "le"
      ],
      [
        "Ġte",
        "am"
      ],
      [
        "h",
        "ip"
      ],
      [
        "Ġh",
        "Ã¡t"
      ],
      [
        "Ġg",
        "ro"
      ],
      [
        "Ġsk",
        "ills"
      ],
      [
        "ĠÄĳ",
        "Æ°á»£c"
      ],
      [
        "Ġli",
        "f"
      ],
      [
        "Ġlá»Ľ",
        "n"
      ],
      [
        "iá»ĥ",
        "m"
      ],
      [
        "Æ°á»",
        "Ľ"
      ],
      [
        "Ġo",
        "p"
      ],
      [
        "Ġ",
        "jo"
      ],
      [
        "Ġble",
        "nds"
      ],
      [
        "il",
        "ity"
      ],
      [
        "Ġne",
        "w"
      ],
      [
        "Ġ",
        "j"
      ],
      [
        "w",
        "n"
      ],
      [
        "Ġre",
        "f"
      ],
      [
        "Ã¬",
        "m"
      ],
      [
        "Ġph",
        "Æ°Æ¡ng"
      ],
      [
        "Ġd",
        "is"
      ],
      [
        "Ġweeke",
        "nd"
      ],
      [
        "Ġpre",
        "f"
      ],
      [
        "l",
        "in"
      ],
      [
        "mer",
        "ican"
      ],
      [
        "Ġcon",
        "t"
      ],
      [
        "Ġt",
        "Ã¬m"
      ],
      [
        "Ġp",
        "ers"
      ],
      [
        "im",
        "p"
      ],
      [
        "Ġtradition",
        "al"
      ],
      [
        "er",
        "ing"
      ],
      [
        "Ġprojec",
        "ts"
      ],
      [
        "le",
        "d"
      ],
      [
        "e",
        "p"
      ],
      [
        "v",
        "ing"
      ],
      [
        "ĠÄĳ",
        "iá»ĥm"
      ],
      [
        "Ġs",
        "erv"
      ],
      [
        "it",
        "e"
      ],
      [
        "áº§",
        "u"
      ],
      [
        "Ġnat",
        "ure"
      ],
      [
        "em",
        "ent"
      ],
      [
        "Ġv",
        "al"
      ],
      [
        "iá»",
        "ħn"
      ],
      [
        "Ġre",
        "ad"
      ],
      [
        "Ġb",
        "e"
      ],
      [
        "Ġk",
        "iá»ĩn"
      ],
      [
        "Ġgiá»",
        "¯"
      ],
      [
        "Ġgi",
        "an"
      ],
      [
        "Ġcomp",
        "eti"
      ],
      [
        "Ġmain",
        "tain"
      ],
      [
        "l",
        "i"
      ],
      [
        "Ġtr",
        "ips"
      ],
      [
        "ish",
        "es"
      ],
      [
        "Ġthá»",
        "±c"
      ],
      [
        "os",
        "e"
      ],
      [
        "Ġp",
        "er"
      ],
      [
        "Ġd",
        "iá»ħn"
      ],
      [
        "Ġt",
        "á»ĳ"
      ],
      [
        "for",
        "m"
      ],
      [
        "on",
        "t"
      ],
      [
        "ĠcÃ¡",
        "ch"
      ],
      [
        "a",
        "ir"
      ],
      [
        "Ġcook",
        "ing"
      ],
      [
        "ion",
        "s"
      ],
      [
        "et",
        "h"
      ],
      [
        "Ġar",
        "tis"
      ],
      [
        "Ġad",
        "v"
      ],
      [
        "at",
        "ch"
      ],
      [
        "et",
        "s"
      ],
      [
        "f",
        "ul"
      ],
      [
        "Ġl",
        "u"
      ],
      [
        "Ġo",
        "ver"
      ],
      [
        "Ġd",
        "ri"
      ],
      [
        "áº£",
        "o"
      ],
      [
        "Ġsen",
        "ior"
      ],
      [
        "Ġc",
        "Æ¡"
      ],
      [
        "ĠS",
        "out"
      ],
      [
        "an",
        "n"
      ],
      [
        "ĠN",
        "am"
      ],
      [
        "Ġmod",
        "est"
      ],
      [
        "ĠÄĲ",
        "á»"
      ],
      [
        "Ġh",
        "i"
      ],
      [
        "T",
        "r"
      ],
      [
        "Ãł",
        "y"
      ],
      [
        "Ġref",
        "lec"
      ],
      [
        "ĠG",
        "Ã²n"
      ],
      [
        "ĠS",
        "Ãłi"
      ],
      [
        "Ġment",
        "or"
      ],
      [
        "am",
        "es"
      ],
      [
        "Ġcre",
        "ative"
      ],
      [
        "Ġs",
        "inh"
      ],
      [
        "Ã´",
        "i"
      ],
      [
        "Ġqu",
        "en"
      ],
      [
        "Äĥ",
        "m"
      ],
      [
        "Æ¡",
        "n"
      ],
      [
        "Ġc",
        "an"
      ],
      [
        "Ġ",
        "ind"
      ],
      [
        "Ġtá»",
        "«"
      ],
      [
        "Ġt",
        "im"
      ],
      [
        "on",
        "s"
      ],
      [
        "Ġmus",
        "ic"
      ],
      [
        "Ġoccasional",
        "ly"
      ],
      [
        "Ä",
        "©"
      ],
      [
        "es",
        "tiv"
      ],
      [
        "Ġlu",
        "Ã´n"
      ],
      [
        "ic",
        "k"
      ],
      [
        "it",
        "al"
      ],
      [
        "ÃŃ",
        "nh"
      ],
      [
        "Ġactiv",
        "ities"
      ],
      [
        "P",
        "h"
      ],
      [
        "o",
        "to"
      ],
      [
        "Ġc",
        "ra"
      ],
      [
        "Ġm",
        "o"
      ],
      [
        "N",
        "g"
      ],
      [
        "e",
        "nd"
      ],
      [
        "en",
        "ti"
      ],
      [
        "r",
        "ing"
      ],
      [
        "Ġ",
        "ed"
      ],
      [
        "ar",
        "k"
      ],
      [
        "Ġpro",
        "gra"
      ],
      [
        "it",
        "age"
      ],
      [
        "at",
        "her"
      ],
      [
        "Ã²",
        "ng"
      ],
      [
        "n",
        "ess"
      ],
      [
        "Ġm",
        "ong"
      ],
      [
        "Ġas",
        "s"
      ],
      [
        "Ġro",
        "u"
      ],
      [
        "Ġen",
        "v"
      ],
      [
        "igh",
        "t"
      ],
      [
        "Ġnh",
        "á»ı"
      ],
      [
        "Ġpl",
        "ay"
      ],
      [
        "ĠV",
        "Äĥn"
      ],
      [
        "Ġin",
        "sp"
      ],
      [
        "'",
        "s"
      ],
      [
        "Ġd",
        "ream"
      ],
      [
        "im",
        "s"
      ],
      [
        "Ġb",
        "á»Ļ"
      ],
      [
        "Ġsch",
        "ool"
      ],
      [
        "el",
        "l"
      ],
      [
        "w",
        "ork"
      ],
      [
        "Ġstr",
        "uc"
      ],
      [
        "or",
        "t"
      ],
      [
        "Ġsoc",
        "ial"
      ],
      [
        "Ġreg",
        "ul"
      ],
      [
        "Ġher",
        "itage"
      ],
      [
        "us",
        "t"
      ],
      [
        "Ġrou",
        "tin"
      ],
      [
        "an",
        "e"
      ],
      [
        "igh",
        "b"
      ],
      [
        "Ġne",
        "ighb"
      ],
      [
        "Ġm",
        "Ã¬nh"
      ],
      [
        "Ġwork",
        "s"
      ],
      [
        "Ġcompeti",
        "tive"
      ],
      [
        "Ġdes",
        "ign"
      ],
      [
        "Ġe",
        "ng"
      ],
      [
        "Ġk",
        "iáº¿"
      ],
      [
        "le",
        "x"
      ],
      [
        "Ġbu",
        "ild"
      ],
      [
        "Ġsh",
        "ap"
      ],
      [
        "Ġc",
        "áº§u"
      ],
      [
        "Ġim",
        "p"
      ],
      [
        "Ġval",
        "ues"
      ],
      [
        "igh",
        "ts"
      ],
      [
        "i",
        "ve"
      ],
      [
        "Ġplan",
        "s"
      ],
      [
        "Ã¡",
        "ng"
      ],
      [
        "Ġf",
        "ri"
      ],
      [
        "b",
        "y"
      ],
      [
        "el",
        "f"
      ],
      [
        "Ġg",
        "re"
      ],
      [
        "Ġ",
        "Y"
      ],
      [
        "Ġd",
        "ishes"
      ],
      [
        "Ġbo",
        "th"
      ],
      [
        "Ġm",
        "Ãª"
      ],
      [
        "ur",
        "n"
      ],
      [
        "v",
        "id"
      ],
      [
        "eth",
        "od"
      ],
      [
        "Ġf",
        "l"
      ],
      [
        "Ã¢",
        "m"
      ],
      [
        "l",
        "ic"
      ],
      [
        "Ġd",
        "o"
      ],
      [
        "Ġus",
        "ing"
      ],
      [
        "Ġa",
        "ims"
      ],
      [
        "Ġpers",
        "onal"
      ],
      [
        "ter",
        "n"
      ],
      [
        "Ġcl",
        "ub"
      ],
      [
        "Ġbas",
        "ic"
      ],
      [
        "Ġf",
        "estiv"
      ],
      [
        "Ġtá»ĳ",
        "t"
      ],
      [
        "us",
        "e"
      ],
      [
        "Ġd",
        "Ãłi"
      ],
      [
        "Ġst",
        "re"
      ],
      [
        "Ġev",
        "ents"
      ],
      [
        "Ġc",
        "are"
      ],
      [
        "Ġk",
        "n"
      ],
      [
        "Ġv",
        "áº"
      ],
      [
        "âĢ",
        "¯"
      ],
      [
        "á»ĳ",
        "i"
      ],
      [
        "vel",
        "op"
      ],
      [
        "ur",
        "ch"
      ],
      [
        "Ġin",
        "cl"
      ],
      [
        "Ġqu",
        "iet"
      ],
      [
        "Ġs",
        "áº£n"
      ],
      [
        "Ġtr",
        "áº»"
      ],
      [
        "Ġex",
        "c"
      ],
      [
        "Ġm",
        "ethod"
      ],
      [
        "ĠÄĳ",
        "áº¡i"
      ],
      [
        "Ġg",
        "ather"
      ],
      [
        "r",
        "is"
      ],
      [
        "r",
        "ess"
      ],
      [
        "Ġch",
        "e"
      ],
      [
        "Ġclass",
        "ic"
      ],
      [
        "iá»ĩ",
        "u"
      ],
      [
        "ĠnhÆ°",
        "ng"
      ],
      [
        "t",
        "on"
      ],
      [
        "Ġplan",
        "ning"
      ],
      [
        "Ġsup",
        "por"
      ],
      [
        "ĠN",
        "h"
      ],
      [
        "res",
        "h"
      ],
      [
        "uá»ĳ",
        "i"
      ],
      [
        "z",
        "z"
      ],
      [
        "et",
        "a"
      ],
      [
        "Ġatte",
        "nd"
      ],
      [
        "ĠÄĳ",
        "am"
      ],
      [
        "es",
        "e"
      ],
      [
        "ar",
        "m"
      ],
      [
        "el",
        "p"
      ],
      [
        "áº¡",
        "c"
      ],
      [
        "Ġtim",
        "e"
      ],
      [
        "Ġde",
        "velop"
      ],
      [
        "ĠT",
        "r"
      ],
      [
        "o",
        "ugh"
      ],
      [
        "i",
        "nds"
      ],
      [
        "Ġstruc",
        "ture"
      ],
      [
        "o",
        "a"
      ],
      [
        "Ġm",
        "Ã¡"
      ],
      [
        "Ġc",
        "enter"
      ],
      [
        "Ġh",
        "igh"
      ],
      [
        "ra",
        "tion"
      ],
      [
        "Tr",
        "áº§n"
      ],
      [
        "Ġc",
        "uá»ĳi"
      ],
      [
        "Ġb",
        "ack"
      ],
      [
        "Ġst",
        "ory"
      ],
      [
        "Ġch",
        "urch"
      ],
      [
        "ĠH",
        "áº£i"
      ],
      [
        "Ġnh",
        "Ã¢n"
      ],
      [
        "us",
        "ed"
      ],
      [
        "ĠM",
        "ex"
      ],
      [
        "Ġp",
        "os"
      ],
      [
        "Ġy",
        "et"
      ],
      [
        "low",
        "s"
      ],
      [
        "h",
        "op"
      ],
      [
        "Ġtr",
        "iá»ĥn"
      ],
      [
        "b",
        "er"
      ],
      [
        "ĠN",
        "ew"
      ],
      [
        "y",
        "ear"
      ],
      [
        "Ġgather",
        "ings"
      ],
      [
        "Ġf",
        "o"
      ],
      [
        "Ġh",
        "elp"
      ],
      [
        "Ġd",
        "ra"
      ],
      [
        "Ġh",
        "iá»ĩn"
      ],
      [
        "á»ĭ",
        "p"
      ],
      [
        "Ġt",
        "áº¡o"
      ],
      [
        "Ġd",
        "el"
      ],
      [
        "Ġgi",
        "Ã¡"
      ],
      [
        "Ġfestiv",
        "als"
      ],
      [
        "Ġim",
        "m"
      ],
      [
        "Ġd",
        "Ã¢n"
      ],
      [
        "i",
        "ver"
      ],
      [
        "Ġexper",
        "ience"
      ],
      [
        "l",
        "ish"
      ],
      [
        "«",
        "n"
      ],
      [
        "Ġc",
        "á»ķ"
      ],
      [
        "at",
        "ed"
      ],
      [
        "ment",
        "s"
      ],
      [
        "tis",
        "e"
      ],
      [
        "Ġtradition",
        "s"
      ],
      [
        "re",
        "c"
      ],
      [
        "Ġwh",
        "ich"
      ],
      [
        "Ġexper",
        "tise"
      ],
      [
        "al",
        "th"
      ],
      [
        "Ġparticip",
        "ates"
      ],
      [
        "Ġserv",
        "ice"
      ],
      [
        "Ġtr",
        "á»"
      ],
      [
        "w",
        "ing"
      ],
      [
        "r",
        "ant"
      ],
      [
        "a",
        "king"
      ],
      [
        "d",
        "uc"
      ],
      [
        "at",
        "a"
      ],
      [
        "Æ°á»Ľ",
        "c"
      ],
      [
        "l",
        "d"
      ],
      [
        "is",
        "ten"
      ],
      [
        "her",
        "n"
      ],
      [
        "en",
        "e"
      ],
      [
        "Ġm",
        "Ã¬"
      ],
      [
        "ro",
        "ach"
      ],
      [
        "Ġle",
        "ver"
      ],
      [
        "Ġtá»",
        "±"
      ],
      [
        "i",
        "o"
      ],
      [
        "Ġlif",
        "e"
      ],
      [
        "Ġartis",
        "tic"
      ],
      [
        "Ġy",
        "ear"
      ],
      [
        "Ã¡",
        "n"
      ],
      [
        "Ġm",
        "á»Ł"
      ],
      [
        "Ġf",
        "resh"
      ],
      [
        "le",
        "b"
      ],
      [
        "Ġtu",
        "áº§n"
      ],
      [
        "ĠmÃ¡",
        "y"
      ],
      [
        "ro",
        "und"
      ],
      [
        "Ġk",
        "áº¿t"
      ],
      [
        "enc",
        "es"
      ],
      [
        "Ġdis",
        "c"
      ],
      [
        "Ġc",
        "ao"
      ],
      [
        "er",
        "ti"
      ],
      [
        "k",
        "es"
      ],
      [
        "Ġhistor",
        "ic"
      ],
      [
        "Ġph",
        "oto"
      ],
      [
        "ĠphÃ¡",
        "t"
      ],
      [
        "Ġhá»",
        "ĩ"
      ],
      [
        "Ġtiáº¿",
        "ng"
      ],
      [
        "Ġbo",
        "ok"
      ],
      [
        "ĠSout",
        "hern"
      ],
      [
        "Ġneighb",
        "or"
      ],
      [
        "Ġb",
        "áº£n"
      ],
      [
        "ol",
        "og"
      ],
      [
        "Ġk",
        "áº¿"
      ],
      [
        "áº",
        "±"
      ],
      [
        "Ġin",
        "v"
      ],
      [
        "Ġapp",
        "roach"
      ],
      [
        "p",
        "ar"
      ],
      [
        "el",
        "ling"
      ],
      [
        "b",
        "o"
      ],
      [
        "Ġl",
        "isten"
      ],
      [
        "Ġw",
        "al"
      ],
      [
        "Ã³",
        "m"
      ],
      [
        "Ġx",
        "em"
      ],
      [
        "Ġt",
        "Ãłi"
      ],
      [
        "Ġed",
        "uc"
      ],
      [
        "ia",
        "tion"
      ],
      [
        "Ġne",
        "ar"
      ],
      [
        "Ġv",
        "áº¥n"
      ],
      [
        "ow",
        "n"
      ],
      [
        "Ġro",
        "le"
      ],
      [
        "e",
        "y"
      ],
      [
        "Ġpref",
        "ers"
      ],
      [
        "Ġd",
        "ata"
      ],
      [
        "ĠS",
        "p"
      ],
      [
        "ur",
        "al"
      ],
      [
        "a",
        "ke"
      ],
      [
        "Ġth",
        "Æ°á»Łng"
      ],
      [
        "d",
        "ri"
      ],
      [
        "Ng",
        "uyá»ħn"
      ],
      [
        "ĠMex",
        "ican"
      ],
      [
        "h",
        "ood"
      ],
      [
        "ĠC",
        "oun"
      ],
      [
        "in",
        "es"
      ],
      [
        "ent",
        "ly"
      ],
      [
        "Ġapp",
        "rec"
      ],
      [
        "Ġtra",
        "vel"
      ],
      [
        "Ġan",
        "al"
      ],
      [
        "Ġsch",
        "ed"
      ],
      [
        "Ġth",
        "iáº¿t"
      ],
      [
        "Ġfri",
        "ends"
      ],
      [
        "in",
        "ing"
      ],
      [
        "gra",
        "ph"
      ],
      [
        "ont",
        "ane"
      ],
      [
        "Ġc",
        "e"
      ],
      [
        "Ġf",
        "e"
      ],
      [
        "ĠM",
        "inh"
      ],
      [
        "Ġdá»±",
        "ng"
      ],
      [
        "el",
        "y"
      ],
      [
        "á»",
        "ĵ"
      ],
      [
        "Ġsp",
        "ontane"
      ],
      [
        "ĠT",
        "he"
      ],
      [
        "c",
        "er"
      ],
      [
        "st",
        "r"
      ],
      [
        "Ġgro",
        "up"
      ],
      [
        "Ġmanag",
        "ement"
      ],
      [
        "Ġtr",
        "ans"
      ],
      [
        "Ġmethod",
        "ical"
      ],
      [
        "a",
        "x"
      ],
      [
        "ord",
        "in"
      ],
      [
        "m",
        "an"
      ],
      [
        "Ġf",
        "re"
      ],
      [
        "Ġd",
        "uring"
      ],
      [
        "Ġt",
        "ÃŃch"
      ],
      [
        "áº£",
        "nh"
      ],
      [
        "ag",
        "es"
      ],
      [
        "Ã¢",
        "u"
      ],
      [
        "Ġce",
        "leb"
      ],
      [
        "Ġa",
        "re"
      ],
      [
        "iv",
        "ers"
      ],
      [
        "a",
        "h"
      ],
      [
        "Ġsp",
        "ends"
      ],
      [
        "áº±",
        "ng"
      ],
      [
        "Ġst",
        "ud"
      ],
      [
        "ph",
        "as"
      ],
      [
        "áº¡",
        "m"
      ],
      [
        "dri",
        "ven"
      ],
      [
        "Ġseas",
        "on"
      ],
      [
        "ĠÄĳ",
        "Ã£"
      ],
      [
        "o",
        "ts"
      ],
      [
        "o",
        "Ãłi"
      ],
      [
        "s",
        "s"
      ],
      [
        "en",
        "s"
      ],
      [
        "Ġnh",
        "iá»ģu"
      ],
      [
        "Ä©",
        "nh"
      ],
      [
        "Ġem",
        "phas"
      ],
      [
        "Ġx",
        "Ã¢y"
      ],
      [
        "Ġstory",
        "t"
      ],
      [
        "Ġl",
        "Ãªn"
      ],
      [
        "Ġg",
        "ames"
      ],
      [
        "Ġsol",
        "it"
      ],
      [
        "n",
        "er"
      ],
      [
        "Ġ",
        "áº©m"
      ],
      [
        "Ġph",
        "á»"
      ],
      [
        "l",
        "and"
      ],
      [
        "p",
        "l"
      ],
      [
        "Ġv",
        "iÃªn"
      ],
      [
        "Ġl",
        "ow"
      ],
      [
        "Ġco",
        "ordin"
      ],
      [
        "Ġgia",
        "o"
      ],
      [
        "ĠlÃł",
        "ng"
      ],
      [
        "ir",
        "on"
      ],
      [
        "Ã¨",
        "o"
      ],
      [
        "Ġphoto",
        "graph"
      ],
      [
        "iá»ģ",
        "m"
      ],
      [
        "g",
        "ing"
      ],
      [
        "Ġs",
        "et"
      ],
      [
        "en",
        "ting"
      ],
      [
        "Ġroutin",
        "e"
      ],
      [
        "ĠA",
        "merican"
      ],
      [
        "Ġb",
        "l"
      ],
      [
        "C",
        "h"
      ],
      [
        "Ġtra",
        "il"
      ],
      [
        "ĠS",
        "t"
      ],
      [
        "Ġro",
        "ad"
      ],
      [
        "Ġd",
        "ig"
      ],
      [
        "Ġdo",
        "anh"
      ],
      [
        "en",
        "er"
      ],
      [
        "Ġhe",
        "alth"
      ],
      [
        "Ġf",
        "in"
      ],
      [
        "Ġp",
        "urs"
      ],
      [
        "Ġwith",
        "in"
      ],
      [
        "Ġh",
        "ands"
      ],
      [
        "in",
        "ess"
      ],
      [
        "Ġspontane",
        "ous"
      ],
      [
        "ĠkhÃ¡",
        "c"
      ],
      [
        "at",
        "h"
      ],
      [
        "Ġn",
        "iá»ģm"
      ],
      [
        "a",
        "tiv"
      ],
      [
        "tic",
        "s"
      ],
      [
        "Ġyear",
        "s"
      ],
      [
        "in",
        "s"
      ],
      [
        "Ġtr",
        "ung"
      ],
      [
        "Ġdig",
        "ital"
      ],
      [
        "Ġk",
        "eep"
      ],
      [
        "Ġl",
        "Ã´ng"
      ],
      [
        "Ġng",
        "Ãły"
      ],
      [
        "Ġenv",
        "iron"
      ],
      [
        "fic",
        "ient"
      ],
      [
        "og",
        "a"
      ],
      [
        "Ġ",
        "Q"
      ],
      [
        "Ġsh",
        "ow"
      ],
      [
        "y",
        "le"
      ],
      [
        "as",
        "h"
      ],
      [
        "ĠE",
        "ng"
      ],
      [
        "Ġworks",
        "hop"
      ],
      [
        "¥",
        "c"
      ],
      [
        "į",
        "ng"
      ],
      [
        "l",
        "l"
      ],
      [
        "ĠA",
        "d"
      ],
      [
        "Ġtiáº¿",
        "u"
      ],
      [
        "a",
        "u"
      ],
      [
        "Ġl",
        "Ä©nh"
      ],
      [
        "Ġcu",
        "á»Ļc"
      ],
      [
        "us",
        "iness"
      ],
      [
        "Ġhá»",
        "§"
      ],
      [
        "Ġgiá»¯",
        "a"
      ],
      [
        "Ġc",
        "ar"
      ],
      [
        "Ġb",
        "iá»ĥu"
      ],
      [
        "Ġd",
        "i"
      ],
      [
        "Ġincl",
        "ud"
      ],
      [
        "Ġh",
        "Ãłnh"
      ],
      [
        "us",
        "to"
      ],
      [
        "Ġneighbor",
        "hood"
      ],
      [
        "Ġho",
        "p"
      ],
      [
        "Ġfol",
        "k"
      ],
      [
        "Ġper",
        "form"
      ],
      [
        "Ġp",
        "res"
      ],
      [
        "m",
        "a"
      ],
      [
        "Ġsá»",
        "Ł"
      ],
      [
        "i",
        "x"
      ],
      [
        "Ġs",
        "Ã¡ng"
      ],
      [
        "Ġnear",
        "by"
      ],
      [
        "Æ°á»£",
        "ng"
      ],
      [
        "Ġbalanc",
        "es"
      ],
      [
        "Ġs",
        "imp"
      ],
      [
        "áº",
        "¹"
      ],
      [
        "Ġm",
        "ed"
      ],
      [
        "ve",
        "ment"
      ],
      [
        "Ġar",
        "ts"
      ],
      [
        "Ġ",
        "un"
      ],
      [
        "Ġd",
        "eep"
      ],
      [
        "ass",
        "ion"
      ],
      [
        "Ġm",
        "em"
      ],
      [
        "Ġcom",
        "for"
      ],
      [
        "Ġsimp",
        "le"
      ],
      [
        "á»¯",
        "a"
      ],
      [
        "Ġg",
        "ra"
      ],
      [
        "Ġcommun",
        "ic"
      ],
      [
        "Ġváº",
        "«n"
      ],
      [
        "Ġab",
        "out"
      ],
      [
        "Ã",
        "©"
      ],
      [
        "Ġp",
        "e"
      ],
      [
        "re",
        "d"
      ],
      [
        "et",
        "ch"
      ],
      [
        "ti",
        "m"
      ],
      [
        "Ġy",
        "oga"
      ],
      [
        "Ġho",
        "a"
      ],
      [
        "Ġch",
        "ann"
      ],
      [
        "c",
        "o"
      ],
      [
        "il",
        "ing"
      ],
      [
        "Ġch",
        "Æ¡i"
      ],
      [
        "Ġc",
        "Äĥn"
      ],
      [
        "Ġn",
        "o"
      ],
      [
        "lex",
        "ib"
      ],
      [
        "Ġc",
        "usto"
      ],
      [
        "Ġ",
        "Ã´ng"
      ],
      [
        "Ġg",
        "u"
      ],
      [
        "Ġpractic",
        "es"
      ],
      [
        "Ġ",
        "ent"
      ],
      [
        "Ġcol",
        "l"
      ],
      [
        "ĠÃ¡",
        "o"
      ],
      [
        "Ġw",
        "ater"
      ],
      [
        "av",
        "or"
      ],
      [
        "ĠCoun",
        "ty"
      ],
      [
        "Ġd",
        "ec"
      ],
      [
        "il",
        "ities"
      ],
      [
        "tic",
        "al"
      ],
      [
        "b",
        "s"
      ],
      [
        "Ġf",
        "lexib"
      ],
      [
        "Ġn",
        "Ã´ng"
      ],
      [
        "Ġwee",
        "k"
      ],
      [
        "Ġprogra",
        "m"
      ],
      [
        "Ġstoryt",
        "elling"
      ],
      [
        "Ġa",
        "m"
      ],
      [
        "ate",
        "g"
      ],
      [
        "Ãº",
        "p"
      ],
      [
        "Ġgre",
        "w"
      ],
      [
        "Ġin",
        "f"
      ],
      [
        "Ã²",
        "a"
      ],
      [
        "Ġchá»",
        "£"
      ],
      [
        "Ġsk",
        "etch"
      ],
      [
        "Ġgi",
        "Ãºp"
      ],
      [
        "Ġvolunte",
        "ers"
      ],
      [
        "Ġs",
        "elf"
      ],
      [
        "Ġv",
        "ib"
      ],
      [
        "Ġw",
        "or"
      ],
      [
        "ĠT",
        "ra"
      ],
      [
        "or",
        "e"
      ],
      [
        "ĠÄĳ",
        "iá»ģu"
      ],
      [
        "al",
        "m"
      ],
      [
        "Ġb",
        "r"
      ],
      [
        "ĠTh",
        "anh"
      ],
      [
        "ĠV",
        "iá»ĩt"
      ],
      [
        "f",
        "ess"
      ],
      [
        "ol",
        "s"
      ],
      [
        "Ġbalanc",
        "ing"
      ],
      [
        "Ġf",
        "ut"
      ],
      [
        "Ġbud",
        "get"
      ],
      [
        "a",
        "ce"
      ],
      [
        "Ġc",
        "le"
      ],
      [
        "Ġpro",
        "duc"
      ],
      [
        "Ġstr",
        "ateg"
      ],
      [
        "om",
        "e"
      ],
      [
        "c",
        "is"
      ],
      [
        "d",
        "ing"
      ],
      [
        "£",
        "p"
      ],
      [
        "Ġsolit",
        "ary"
      ],
      [
        "Ġf",
        "ood"
      ],
      [
        "Ġcon",
        "s"
      ],
      [
        "id",
        "enti"
      ],
      [
        "ĠL",
        "an"
      ],
      [
        "ip",
        "lin"
      ],
      [
        "Ġapprec",
        "iation"
      ],
      [
        "Ġc",
        "áº£i"
      ],
      [
        "s",
        "e"
      ],
      [
        "Ġhá»",
        "£p"
      ],
      [
        "Ġop",
        "er"
      ],
      [
        "t",
        "r"
      ],
      [
        "Ġfut",
        "ure"
      ],
      [
        "Ġr",
        "áº¥t"
      ],
      [
        "Ġexc",
        "els"
      ],
      [
        "Ġhop",
        "es"
      ],
      [
        "Ġh",
        "iá»ĥu"
      ],
      [
        "ab",
        "or"
      ],
      [
        "Ġimm",
        "ers"
      ],
      [
        "Ġb",
        "á»ĭ"
      ],
      [
        "enc",
        "y"
      ],
      [
        "ĠT",
        "P"
      ],
      [
        "Ġbuild",
        "ing"
      ],
      [
        "C",
        "Ã´"
      ],
      [
        "c",
        "ap"
      ],
      [
        "Ġb",
        "áº±ng"
      ],
      [
        "Ġtr",
        "Ã¬nh"
      ],
      [
        "at",
        "or"
      ],
      [
        "Ġas",
        "p"
      ],
      [
        "Ġcomfor",
        "t"
      ],
      [
        "Ġme",
        "als"
      ],
      [
        "Ġch",
        "ÃŃnh"
      ],
      [
        "Ġregul",
        "arly"
      ],
      [
        "li",
        "ance"
      ],
      [
        "Ġkiáº¿",
        "m"
      ],
      [
        "Ġe",
        "arly"
      ],
      [
        "fess",
        "ional"
      ],
      [
        "ar",
        "n"
      ],
      [
        "Ġvá»",
        "¥"
      ],
      [
        "Ġlo",
        "ves"
      ],
      [
        "ĠPh",
        "Ã²ng"
      ],
      [
        "is",
        "ed"
      ],
      [
        "Ġvis",
        "ual"
      ],
      [
        "Ġp",
        "ain"
      ],
      [
        "Ġb",
        "ec"
      ],
      [
        "Ġnghá»",
        "ģ"
      ],
      [
        "Ġorganiz",
        "ed"
      ],
      [
        "Ġfre",
        "qu"
      ],
      [
        "Ġimp",
        "ro"
      ],
      [
        "ĠM",
        "id"
      ],
      [
        "Ġreg",
        "ional"
      ],
      [
        "Ġdá»¥",
        "c"
      ],
      [
        "B",
        "Ãł"
      ],
      [
        "Ġ",
        "U"
      ],
      [
        "áº¥",
        "y"
      ],
      [
        "Ġvib",
        "rant"
      ],
      [
        "Ġh",
        "áº¡n"
      ],
      [
        "Ġn",
        "Æ°á»Ľc"
      ],
      [
        "ard",
        "s"
      ],
      [
        "Ġcon",
        "f"
      ],
      [
        "oc",
        "used"
      ],
      [
        "Ġstructure",
        "d"
      ],
      [
        "ĠL",
        "ong"
      ],
      [
        "Ġlisten",
        "ing"
      ],
      [
        "Ġa",
        "vid"
      ],
      [
        "Ġfol",
        "lows"
      ],
      [
        "ys",
        "t"
      ],
      [
        "Ãł",
        "n"
      ],
      [
        "y",
        "th"
      ],
      [
        "Ġco",
        "un"
      ],
      [
        "ĠK",
        "h"
      ],
      [
        "Ġng",
        "áº¯"
      ],
      [
        "Ġ",
        "("
      ],
      [
        "Ġl",
        "a"
      ],
      [
        "at",
        "o"
      ],
      [
        "ak",
        "es"
      ],
      [
        "x",
        "t"
      ],
      [
        "Ġn",
        "á»ķi"
      ],
      [
        "Ġtechn",
        "olog"
      ],
      [
        "Ġhi",
        "kes"
      ],
      [
        "Ã³",
        "c"
      ],
      [
        "Ġc",
        "erti"
      ],
      [
        "Ġv",
        "e"
      ],
      [
        "al",
        "es"
      ],
      [
        "Ġb",
        "áº£o"
      ],
      [
        "d",
        "o"
      ],
      [
        "Ġro",
        "ots"
      ],
      [
        "iá»",
        "ģn"
      ],
      [
        "Ġread",
        "ing"
      ],
      [
        "Ġattend",
        "ing"
      ],
      [
        "Ġcom",
        "b"
      ],
      [
        "iling",
        "ual"
      ],
      [
        "Ġb",
        "áº¡n"
      ],
      [
        "ĠÄĳ",
        "iá»ĩn"
      ],
      [
        "Ġqu",
        "y"
      ],
      [
        "Ġh",
        "Ã²a"
      ],
      [
        "an",
        "ish"
      ],
      [
        "ĠH",
        "Æ°Æ¡ng"
      ],
      [
        "áº£",
        "m"
      ],
      [
        "Ġre",
        "ti"
      ],
      [
        "ĠI",
        "n"
      ],
      [
        "Ġa",
        "f"
      ],
      [
        "al",
        "ly"
      ],
      [
        "Ġsa",
        "f"
      ],
      [
        "Ġvolunte",
        "er"
      ],
      [
        "l",
        "ine"
      ],
      [
        "c",
        "ol"
      ],
      [
        "Ġb",
        "usiness"
      ],
      [
        "Ġcra",
        "f"
      ],
      [
        "Ġpro",
        "c"
      ],
      [
        "av",
        "ors"
      ],
      [
        "in",
        "t"
      ],
      [
        "Ġd",
        "eta"
      ],
      [
        "Ġ",
        "es"
      ],
      [
        "Ġenviron",
        "ment"
      ],
      [
        "Ġeng",
        "ine"
      ],
      [
        "tur",
        "es"
      ],
      [
        "Ġhistor",
        "ical"
      ],
      [
        "ĠÄĳ",
        "ang"
      ],
      [
        "Ġst",
        "ay"
      ],
      [
        "Ġcu",
        "a"
      ],
      [
        "ĠkhÃ¡",
        "ch"
      ],
      [
        "Ġt",
        "áº¿"
      ],
      [
        "áº£",
        "ng"
      ],
      [
        "ti",
        "me"
      ],
      [
        "ia",
        "ble"
      ],
      [
        "anc",
        "es"
      ],
      [
        "or",
        "n"
      ],
      [
        "Ġsh",
        "ar"
      ],
      [
        "Ġne",
        "xt"
      ],
      [
        "ire",
        "d"
      ],
      [
        "Ġd",
        "á»ĭp"
      ],
      [
        "ial",
        "ly"
      ],
      [
        "L",
        "Ãª"
      ],
      [
        "Ġw",
        "ood"
      ],
      [
        "ge",
        "ting"
      ],
      [
        "ĩ",
        "n"
      ],
      [
        "Ġtr",
        "Ã¬"
      ],
      [
        "ĠC",
        "l"
      ],
      [
        "Ġworkshop",
        "s"
      ],
      [
        "Ġt",
        "Ã¢m"
      ],
      [
        "ĠNg",
        "uyá»ħn"
      ],
      [
        "Ġal",
        "ong"
      ],
      [
        "Ġf",
        "it"
      ],
      [
        "ĠTh",
        "Ãłnh"
      ],
      [
        "ad",
        "es"
      ],
      [
        "ac",
        "t"
      ],
      [
        "Ġcont",
        "em"
      ],
      [
        "Ġh",
        "and"
      ],
      [
        "Ġr",
        "á»Ļng"
      ],
      [
        "Ġkh",
        "i"
      ],
      [
        "áº¥",
        "p"
      ],
      [
        "Ġal",
        "l"
      ],
      [
        "Ġasp",
        "ir"
      ],
      [
        "ĠÄĳá»ĭ",
        "nh"
      ],
      [
        "f",
        "i"
      ],
      [
        "Ġb",
        "ilingual"
      ],
      [
        "Ġt",
        "re"
      ],
      [
        "ĠÃ¡",
        "n"
      ],
      [
        "o",
        "ung"
      ],
      [
        "á»",
        "Ľi"
      ],
      [
        "ĠB",
        "l"
      ],
      [
        "Ġ",
        "identi"
      ],
      [
        "Ġpro",
        "ble"
      ],
      [
        "ĠSp",
        "anish"
      ],
      [
        "ĠA",
        "n"
      ],
      [
        "Ġtr",
        "áºŃn"
      ],
      [
        "Ġm",
        "ul"
      ],
      [
        "Ġtr",
        "á»ĭ"
      ],
      [
        "ec",
        "t"
      ],
      [
        "Ġnh",
        "áº¡c"
      ],
      [
        "Ġatte",
        "nds"
      ],
      [
        "Æ°á»Ŀ",
        "n"
      ],
      [
        "Ph",
        "áº¡m"
      ],
      [
        "por",
        "ary"
      ],
      [
        "Ġdream",
        "s"
      ],
      [
        "it",
        "er"
      ],
      [
        "Ġev",
        "ent"
      ],
      [
        "Ã³",
        "i"
      ],
      [
        "Ġseas",
        "onal"
      ],
      [
        "k",
        "et"
      ],
      [
        "Ġc",
        "uá»ĳn"
      ],
      [
        "ĠA",
        "r"
      ],
      [
        "ag",
        "ue"
      ],
      [
        "Ġsá»Ń",
        "a"
      ],
      [
        "str",
        "uc"
      ],
      [
        "ı",
        "i"
      ],
      [
        "Ġal",
        "low"
      ],
      [
        "Ġm",
        "id"
      ],
      [
        "Ġd",
        "ivers"
      ],
      [
        "pec",
        "t"
      ],
      [
        "Ġev",
        "en"
      ],
      [
        "Ġc",
        "ap"
      ],
      [
        "Ġexperim",
        "enting"
      ],
      [
        "ĠÄĳ",
        "a"
      ],
      [
        "Ġth",
        "á»ĭ"
      ],
      [
        "Ġpro",
        "fessional"
      ],
      [
        "l",
        "u"
      ],
      [
        "Ġqu",
        "a"
      ],
      [
        "et",
        "y"
      ],
      [
        "Ġso",
        "ft"
      ],
      [
        "Ġcontem",
        "porary"
      ],
      [
        "le",
        "y"
      ],
      [
        "Ġcul",
        "ture"
      ],
      [
        "Ġb",
        "á»"
      ],
      [
        "ro",
        "ss"
      ],
      [
        "ĠC",
        "áº§n"
      ],
      [
        "Ġtrail",
        "s"
      ],
      [
        "Ġbal",
        "ance"
      ],
      [
        "Ã",
        "Ķ"
      ],
      [
        "ĠTh",
        "Æ¡"
      ],
      [
        "Ġrel",
        "ax"
      ],
      [
        "ÃĶ",
        "ng"
      ],
      [
        "u",
        "á»"
      ],
      [
        "Ġrec",
        "ip"
      ],
      [
        "Ġpre",
        "par"
      ],
      [
        "Ġbud",
        "geting"
      ],
      [
        "Ġtr",
        "Æ°á»Ŀng"
      ],
      [
        "Ġs",
        "Ã´i"
      ],
      [
        "Ġy",
        "oung"
      ],
      [
        "Ġa",
        "ut"
      ],
      [
        "Ġc",
        "Ã²n"
      ],
      [
        "o",
        "th"
      ],
      [
        "Ġcommunic",
        "ation"
      ],
      [
        "A",
        "merican"
      ],
      [
        "av",
        "ing"
      ],
      [
        "ĠÄĳ",
        "Æ°á»Ŀng"
      ],
      [
        "Ġch",
        "Äĥm"
      ],
      [
        "in",
        "ary"
      ],
      [
        "Ġeduc",
        "ation"
      ],
      [
        "Ġweek",
        "ly"
      ],
      [
        "Ġt",
        "w"
      ],
      [
        "Ġemphas",
        "iz"
      ],
      [
        "tion",
        "al"
      ],
      [
        "m",
        "in"
      ],
      [
        "Ã",
        "µ"
      ],
      [
        "Ġt",
        "iá»ĩc"
      ],
      [
        "Ġtr",
        "Ãªn"
      ],
      [
        "es",
        "tern"
      ],
      [
        "Ġsp",
        "ec"
      ],
      [
        "ĠMid",
        "w"
      ],
      [
        "Ġsoc",
        "cer"
      ],
      [
        "re",
        "ad"
      ],
      [
        "Ġadv",
        "ent"
      ],
      [
        "h",
        "old"
      ],
      [
        "Ġd",
        "oc"
      ],
      [
        "Ġph",
        "á»Ł"
      ],
      [
        "Ġs",
        "ess"
      ],
      [
        "Ġac",
        "tive"
      ],
      [
        "Ġtiáº¿",
        "p"
      ],
      [
        "Ġmaintain",
        "ing"
      ],
      [
        "Ġment",
        "ors"
      ],
      [
        "ĠNg",
        "oÃłi"
      ],
      [
        "Æ°",
        "u"
      ],
      [
        "Ġkh",
        "ÃŃ"
      ],
      [
        "am",
        "e"
      ],
      [
        "Ġch",
        "á»¯a"
      ],
      [
        "ish",
        "ing"
      ],
      [
        "Ġs",
        "ec"
      ],
      [
        "Ġn",
        "Äĥm"
      ],
      [
        "er",
        "n"
      ],
      [
        "Ġho",
        "use"
      ],
      [
        "Ġsol",
        "id"
      ],
      [
        "Ġl",
        "ong"
      ],
      [
        "w",
        "ard"
      ],
      [
        "Ġpro",
        "ficient"
      ],
      [
        "Ġw",
        "as"
      ],
      [
        "Ġe",
        "mer"
      ],
      [
        "Ã¡",
        "i"
      ],
      [
        "Ġte",
        "ach"
      ],
      [
        "Ġexplor",
        "ing"
      ],
      [
        "Ġd",
        "em"
      ],
      [
        "Ġreg",
        "ion"
      ],
      [
        "Ġthá»",
        "Ń"
      ],
      [
        "Ġsuppor",
        "t"
      ],
      [
        "Ġlever",
        "ages"
      ],
      [
        "Ġpurs",
        "u"
      ],
      [
        "ir",
        "it"
      ],
      [
        "pec",
        "ially"
      ],
      [
        "Ġcon",
        "n"
      ],
      [
        "Ġv",
        "á»ĭ"
      ],
      [
        "ĠÄĳ",
        "áº¥u"
      ],
      [
        "ĠTr",
        "ung"
      ],
      [
        "Ġs",
        "Ã³c"
      ],
      [
        "Ġb",
        "iáº¿t"
      ],
      [
        "Ġcerti",
        "fic"
      ],
      [
        "Ġh",
        "ab"
      ],
      [
        "Ġseason",
        "ed"
      ],
      [
        "V",
        "á»Ľi"
      ],
      [
        "Ġcul",
        "inary"
      ],
      [
        "ur",
        "es"
      ],
      [
        "Ġf",
        "os"
      ],
      [
        "Ġphotograph",
        "y"
      ],
      [
        "ad",
        "e"
      ],
      [
        "ĠR",
        "iver"
      ],
      [
        "Ġtechn",
        "ical"
      ],
      [
        "Ġdisc",
        "iplin"
      ],
      [
        "Ġve",
        "get"
      ],
      [
        "e",
        "an"
      ],
      [
        "Ġdisciplin",
        "ed"
      ],
      [
        "Ġd",
        "a"
      ],
      [
        "ring",
        "ing"
      ],
      [
        "Ġfe",
        "at"
      ],
      [
        "Ġt",
        "áºŃn"
      ],
      [
        "Ġ",
        "áº¥y"
      ],
      [
        "Ġup",
        "b"
      ],
      [
        "am",
        "p"
      ],
      [
        "Ġproble",
        "m"
      ],
      [
        "n",
        "it"
      ],
      [
        "r",
        "en"
      ],
      [
        "m",
        "es"
      ],
      [
        "Ġc",
        "alm"
      ],
      [
        "Ġm",
        "iá»ģn"
      ],
      [
        "Ġc",
        "Ã¹ng"
      ],
      [
        "Ã¡",
        "c"
      ],
      [
        "Ġtr",
        "á»Ł"
      ],
      [
        "Ġre",
        "p"
      ],
      [
        "ĠEng",
        "lish"
      ],
      [
        "g",
        "r"
      ],
      [
        "Ġsp",
        "irit"
      ],
      [
        "Ġsaf",
        "ety"
      ],
      [
        "w",
        "e"
      ],
      [
        "yst",
        "em"
      ],
      [
        "Ġinf",
        "lu"
      ],
      [
        "á»ĳ",
        "c"
      ],
      [
        "Ãª",
        "m"
      ],
      [
        "Ġout",
        "do"
      ],
      [
        "Ġs",
        "us"
      ],
      [
        "Ġto",
        "ols"
      ],
      [
        "ers",
        "hip"
      ],
      [
        "Ġd",
        "uy"
      ],
      [
        "Ġres",
        "pect"
      ],
      [
        "ĠW",
        "h"
      ],
      [
        "Ġlá»Ľ",
        "p"
      ],
      [
        "Ġac",
        "c"
      ],
      [
        "ĠÄĲá»",
        "©c"
      ],
      [
        "Ġhoáº¡",
        "ch"
      ],
      [
        "Ġra",
        "ised"
      ],
      [
        "Ġno",
        "vel"
      ],
      [
        "Ġb",
        "Ã¨"
      ],
      [
        "us",
        "i"
      ],
      [
        "o",
        "v"
      ],
      [
        "ter",
        "m"
      ],
      [
        "Ġpref",
        "er"
      ],
      [
        "Ġ",
        "3"
      ],
      [
        "Ġsh",
        "ort"
      ],
      [
        "ual",
        "ly"
      ],
      [
        "Ġcol",
        "lec"
      ],
      [
        "Ġb",
        "ro"
      ],
      [
        "Ġwh",
        "ite"
      ],
      [
        "Ġab",
        "ilities"
      ],
      [
        "Ġ",
        "1"
      ],
      [
        "Ġexperim",
        "ents"
      ],
      [
        "h",
        "usi"
      ],
      [
        "t",
        "a"
      ],
      [
        "Ġo",
        "wn"
      ],
      [
        "Ġx",
        "u"
      ],
      [
        "ĠL",
        "inh"
      ],
      [
        "Ġim",
        "ag"
      ],
      [
        "Ġcoll",
        "abor"
      ],
      [
        "ra",
        "g"
      ],
      [
        "Ġto",
        "wn"
      ],
      [
        "Ġsess",
        "ions"
      ],
      [
        "Ġda",
        "ily"
      ],
      [
        "u",
        "áº¥n"
      ],
      [
        "Ġm",
        "inds"
      ],
      [
        "áº¯",
        "c"
      ],
      [
        "Ġfos",
        "ter"
      ],
      [
        "Ġminds",
        "et"
      ],
      [
        "w",
        "s"
      ],
      [
        "out",
        "h"
      ],
      [
        "Ġrecip",
        "es"
      ],
      [
        "Ġwater",
        "col"
      ],
      [
        "as",
        "ter"
      ],
      [
        "Ġinsp",
        "i"
      ],
      [
        "Ġprojec",
        "t"
      ],
      [
        "Ġ",
        "2"
      ],
      [
        "Ġth",
        "Ã³i"
      ],
      [
        "Ġexper",
        "i"
      ],
      [
        "Ġg",
        "áº§n"
      ],
      [
        "Ġof",
        "f"
      ],
      [
        "Ġhá»",
        "ıi"
      ],
      [
        "ac",
        "y"
      ],
      [
        "ol",
        "ving"
      ],
      [
        "Ġdivers",
        "e"
      ],
      [
        "Ġam",
        "b"
      ],
      [
        "Ġent",
        "husi"
      ],
      [
        "Ġp",
        "o"
      ],
      [
        "ver",
        "y"
      ],
      [
        "Ġpre",
        "cis"
      ],
      [
        "Ġdec",
        "ades"
      ],
      [
        "w",
        "ays"
      ],
      [
        "Ġ",
        "á»ķ"
      ],
      [
        "Ġl",
        "ands"
      ],
      [
        "uyá»",
        "ĩn"
      ],
      [
        "Ġhistor",
        "y"
      ],
      [
        "Ġá»ķ",
        "n"
      ],
      [
        "Ġph",
        "áº§n"
      ],
      [
        "Ġcl",
        "ose"
      ],
      [
        "Ġupb",
        "ringing"
      ],
      [
        "ar",
        "ning"
      ],
      [
        "Ġp",
        "ot"
      ],
      [
        "Ġv",
        "áºŃn"
      ],
      [
        "for",
        "ms"
      ],
      [
        "Ġt",
        "in"
      ],
      [
        "Ġle",
        "ague"
      ],
      [
        "Ġkn",
        "ow"
      ],
      [
        "Ġinspi",
        "ration"
      ],
      [
        "Ġin",
        "t"
      ],
      [
        "er",
        "t"
      ],
      [
        "Ġsá»",
        "©c"
      ],
      [
        "iet",
        "y"
      ],
      [
        "Ġlands",
        "cap"
      ],
      [
        "Ġen",
        "s"
      ],
      [
        "o",
        "h"
      ],
      [
        "Ġw",
        "ell"
      ],
      [
        "ar",
        "t"
      ],
      [
        "áº¥",
        "m"
      ],
      [
        "al",
        "e"
      ],
      [
        "Ġh",
        "y"
      ],
      [
        "Ġt",
        "ro"
      ],
      [
        "Ġpl",
        "ays"
      ],
      [
        "ep",
        "t"
      ],
      [
        "Ġwal",
        "ks"
      ],
      [
        "Ń",
        "a"
      ],
      [
        "Ġs",
        "ystem"
      ],
      [
        "Ġop",
        "en"
      ],
      [
        "a",
        "zz"
      ],
      [
        "Ġnh",
        "áºŃp"
      ],
      [
        "ĠT",
        "áº¿t"
      ],
      [
        "ĠH",
        "á»ĵ"
      ],
      [
        "Ġin",
        "te"
      ],
      [
        "Ġweeke",
        "nds"
      ],
      [
        "qu",
        "e"
      ],
      [
        "Ġgi",
        "áº£i"
      ],
      [
        "a",
        "ve"
      ],
      [
        "Ġh",
        "á»Ļ"
      ],
      [
        "iáº¿",
        "u"
      ],
      [
        "Ġad",
        "ept"
      ],
      [
        "atch",
        "ing"
      ],
      [
        "Ġchann",
        "els"
      ],
      [
        "el",
        "d"
      ],
      [
        "air",
        "s"
      ],
      [
        "Ġvá»",
        "įng"
      ],
      [
        "Æ°á»Ľ",
        "ng"
      ],
      [
        "ĠT",
        "uáº¥n"
      ],
      [
        "anc",
        "ial"
      ],
      [
        "Ġfrequ",
        "ently"
      ],
      [
        "it",
        "ch"
      ],
      [
        "Ġx",
        "Ã³m"
      ],
      [
        "Ġph",
        "áº©m"
      ],
      [
        "Ġh",
        "iá»ĩu"
      ],
      [
        "un",
        "ch"
      ],
      [
        "en",
        "n"
      ],
      [
        "ess",
        "es"
      ],
      [
        "Ġsus",
        "tain"
      ],
      [
        "Ġth",
        "Ã¢n"
      ],
      [
        "or",
        "ies"
      ],
      [
        "Ġsc",
        "ience"
      ],
      [
        "Ġes",
        "pecially"
      ],
      [
        "Ġt",
        "inh"
      ],
      [
        "all",
        "er"
      ],
      [
        "Ġemer",
        "ging"
      ],
      [
        "Ġb",
        "ut"
      ],
      [
        "Ġthe",
        "m"
      ],
      [
        "il",
        "le"
      ],
      [
        "Ġkh",
        "á»ı"
      ],
      [
        "Ġhá»",
        "į"
      ],
      [
        "Ġcá»",
        "Ńa"
      ],
      [
        "Ġnat",
        "ural"
      ],
      [
        "Ġp",
        "r"
      ],
      [
        "work",
        "ing"
      ],
      [
        "Ġe",
        "ach"
      ],
      [
        "b",
        "an"
      ],
      [
        "Ġs",
        "Æ°"
      ],
      [
        "il",
        "led"
      ],
      [
        "ĠC",
        "o"
      ],
      [
        "Ġfit",
        "ness"
      ],
      [
        "a",
        "z"
      ],
      [
        "Ġin",
        "s"
      ],
      [
        "ĠCl",
        "ub"
      ],
      [
        "Ġv",
        "Æ°á»Ŀn"
      ],
      [
        "Ġhouse",
        "hold"
      ],
      [
        "g",
        "o"
      ],
      [
        "ition",
        "s"
      ],
      [
        "Ġcomp",
        "le"
      ],
      [
        "Ġem",
        "p"
      ],
      [
        "Ġpain",
        "ting"
      ],
      [
        "ket",
        "ball"
      ],
      [
        "S",
        "á»ĳng"
      ],
      [
        "u",
        "ts"
      ],
      [
        "Ġ",
        "ide"
      ],
      [
        "ĠM",
        "ai"
      ],
      [
        "Ġf",
        "u"
      ],
      [
        "id",
        "ge"
      ],
      [
        "Ġprogra",
        "ms"
      ],
      [
        "Ġkhá»ı",
        "e"
      ],
      [
        "Ġl",
        "iter"
      ],
      [
        "uy",
        "áº¿n"
      ],
      [
        "Ġth",
        "ough"
      ],
      [
        "Ġinv",
        "ol"
      ],
      [
        "v",
        "ers"
      ],
      [
        "Ġ",
        "4"
      ],
      [
        "er",
        "g"
      ],
      [
        "Ġpar",
        "t"
      ],
      [
        "ear",
        "ch"
      ],
      [
        "Ġfin",
        "ancial"
      ],
      [
        "Ġc",
        "áº¥p"
      ],
      [
        "Ġinsp",
        "ired"
      ],
      [
        "d",
        "u"
      ],
      [
        "m",
        "ing"
      ],
      [
        "Ġf",
        "ree"
      ],
      [
        "f",
        "r"
      ],
      [
        "s",
        "olving"
      ],
      [
        "is",
        "s"
      ],
      [
        "Ġp",
        "ub"
      ],
      [
        "Ġbook",
        "s"
      ],
      [
        "ok",
        "ed"
      ],
      [
        "ag",
        "ing"
      ],
      [
        "ĠÄĲá»",
        "ĵng"
      ],
      [
        "Ġm",
        "Ãł"
      ],
      [
        "Ġjo",
        "urn"
      ],
      [
        "Ġdri",
        "ves"
      ],
      [
        "Ġhab",
        "it"
      ],
      [
        "u",
        "le"
      ],
      [
        "ĠM",
        "ar"
      ],
      [
        "Ġbas",
        "ketball"
      ],
      [
        "c",
        "k"
      ],
      [
        "Ġj",
        "azz"
      ],
      [
        "ĠMidw",
        "estern"
      ],
      [
        "f",
        "ocused"
      ],
      [
        "or",
        "ts"
      ],
      [
        "Ġaf",
        "ter"
      ],
      [
        "Ġc",
        "Ã¢u"
      ],
      [
        "Ġlead",
        "ership"
      ],
      [
        "Ġinter",
        "ac"
      ],
      [
        "led",
        "ge"
      ],
      [
        "op",
        "er"
      ],
      [
        "ra",
        "tions"
      ],
      [
        "Ġsa",
        "tis"
      ],
      [
        "Ġm",
        "ar"
      ],
      [
        "Ġe",
        "very"
      ],
      [
        "Ġt",
        "y"
      ],
      [
        "ĠNg",
        "uyÃªn"
      ],
      [
        "Ġqu",
        "á»ĳc"
      ],
      [
        "Ġres",
        "p"
      ],
      [
        "Ġfeat",
        "uring"
      ],
      [
        "Ġknow",
        "ledge"
      ],
      [
        "d",
        "le"
      ],
      [
        "Ġst",
        "a"
      ],
      [
        "Ġho",
        "m"
      ],
      [
        "Ġmeticulous",
        "ly"
      ],
      [
        "Ġflexib",
        "le"
      ],
      [
        "Ġnovel",
        "s"
      ],
      [
        "Ġsatis",
        "f"
      ],
      [
        "Ġkiáº¿",
        "n"
      ],
      [
        "Ġdel",
        "ights"
      ],
      [
        "h",
        "o"
      ],
      [
        "Ġstr",
        "ess"
      ],
      [
        "Ġsched",
        "ul"
      ],
      [
        "Ġwh",
        "en"
      ],
      [
        "Ġy",
        "outh"
      ],
      [
        "Ġm",
        "ix"
      ],
      [
        "Ġst",
        "ories"
      ],
      [
        "Ġsen",
        "se"
      ],
      [
        "ĠL",
        "E"
      ],
      [
        "Ġem",
        "b"
      ],
      [
        "Ġ",
        "und"
      ],
      [
        "Ġth",
        "áº¡o"
      ],
      [
        "Ġs",
        "om"
      ],
      [
        "ĠS",
        "Æ¡n"
      ],
      [
        "Ġlo",
        "g"
      ],
      [
        "w",
        "are"
      ],
      [
        "Ġth",
        "ree"
      ],
      [
        "Ġtra",
        "ining"
      ],
      [
        "Ġngáº¯",
        "n"
      ],
      [
        "ĠmÃ³",
        "c"
      ],
      [
        "Ġide",
        "as"
      ],
      [
        "Ġh",
        "Æ¡n"
      ],
      [
        "or",
        "ning"
      ],
      [
        "Ġaspir",
        "es"
      ],
      [
        "Ġt",
        "i"
      ],
      [
        "ch",
        "ool"
      ],
      [
        "Æ°",
        "a"
      ],
      [
        "ĠÄĳá»",
        "ģ"
      ],
      [
        "ĠP",
        "ark"
      ],
      [
        "Ġres",
        "earch"
      ],
      [
        "T",
        "rong"
      ],
      [
        "Ġanal",
        "y"
      ],
      [
        "oh",
        "n"
      ],
      [
        "Ġg",
        "o"
      ],
      [
        "i",
        "f"
      ],
      [
        "Ġplay",
        "ing"
      ],
      [
        "u",
        "a"
      ],
      [
        "Ġg",
        "aller"
      ],
      [
        "ra",
        "ting"
      ],
      [
        "Ġe",
        "th"
      ],
      [
        "Ġf",
        "ishing"
      ],
      [
        "Ġin",
        "c"
      ],
      [
        "Ġnh",
        "au"
      ],
      [
        "Ġsp",
        "orts"
      ],
      [
        "Ph",
        "an"
      ],
      [
        "Ġshap",
        "ed"
      ],
      [
        "Ġth",
        "Ã´ng"
      ],
      [
        "erv",
        "is"
      ],
      [
        "G",
        "O"
      ],
      [
        "Ġh",
        "Æ°á»Łng"
      ],
      [
        "ĠT",
        "ex"
      ],
      [
        "Ġexplor",
        "e"
      ],
      [
        "Ġcare",
        "er"
      ],
      [
        "ĠAd",
        "dition"
      ],
      [
        "ato",
        "es"
      ],
      [
        "Ġeven",
        "ings"
      ],
      [
        "ĠcÆ¡",
        "m"
      ],
      [
        "áº¡",
        "t"
      ],
      [
        "ativ",
        "es"
      ],
      [
        "Ġco",
        "oper"
      ],
      [
        "ĠÄĲ",
        "Ã¡n"
      ],
      [
        "Ġbec",
        "ome"
      ],
      [
        "ag",
        "ement"
      ],
      [
        "Ġgarden",
        "ing"
      ],
      [
        "Ġexperim",
        "ent"
      ],
      [
        "ĠLE",
        "GO"
      ],
      [
        "e",
        "um"
      ],
      [
        "Ġe",
        "f"
      ],
      [
        "ĠAddition",
        "ally"
      ],
      [
        "Ġth",
        "áº§n"
      ],
      [
        "Ġco",
        "lor"
      ],
      [
        "Ġexp",
        "ress"
      ],
      [
        "cl",
        "ass"
      ],
      [
        "Ġhi",
        "king"
      ],
      [
        "Ġdra",
        "wing"
      ],
      [
        "Ġb",
        "Ãłi"
      ],
      [
        "Ġdri",
        "ve"
      ],
      [
        "Ã¢",
        "ng"
      ],
      [
        "Ġt",
        "ÃŃnh"
      ],
      [
        "ĠNh",
        "Ãł"
      ],
      [
        "is",
        "ions"
      ],
      [
        "tur",
        "ing"
      ],
      [
        "Ġsk",
        "ill"
      ],
      [
        "áº¡",
        "nh"
      ],
      [
        "Ġdoc",
        "u"
      ],
      [
        "Ġidenti",
        "ty"
      ],
      [
        "Ġd",
        "á»ĭch"
      ],
      [
        "ke",
        "y"
      ],
      [
        "eti",
        "mes"
      ],
      [
        "b",
        "as"
      ],
      [
        "Ġth",
        "ese"
      ],
      [
        "ma",
        "tic"
      ],
      [
        "Ġm",
        "Ã´n"
      ],
      [
        "Ġyoung",
        "er"
      ],
      [
        "Ġwatercol",
        "or"
      ],
      [
        "Ġsom",
        "etimes"
      ],
      [
        "h",
        "ib"
      ],
      [
        "ĠS",
        "c"
      ],
      [
        "i",
        "am"
      ],
      [
        "Ġp",
        "assion"
      ],
      [
        "Ġp",
        "rag"
      ],
      [
        "Ġf",
        "avor"
      ],
      [
        "Ġinvol",
        "vement"
      ],
      [
        "Ġr",
        "h"
      ],
      [
        "Ġm",
        "aster"
      ],
      [
        "Ġmus",
        "eum"
      ],
      [
        "Ġpos",
        "s"
      ],
      [
        "on",
        "y"
      ],
      [
        "Ġde",
        "v"
      ],
      [
        "ric",
        "ul"
      ],
      [
        "Ġmentor",
        "ing"
      ],
      [
        "Ġch",
        "uyÃªn"
      ],
      [
        "ĠS",
        "an"
      ],
      [
        "Ch",
        "á»ĭ"
      ],
      [
        "Ġle",
        "arning"
      ],
      [
        "ro",
        "l"
      ],
      [
        "Ġtechnolog",
        "y"
      ],
      [
        "Ġresp",
        "ons"
      ],
      [
        "c",
        "el"
      ],
      [
        "u",
        "zz"
      ],
      [
        "Ġsched",
        "ule"
      ],
      [
        "Ġto",
        "m"
      ],
      [
        "Ġallow",
        "ing"
      ],
      [
        "Ġmid",
        "dle"
      ],
      [
        "on",
        "e"
      ],
      [
        "Ġm",
        "á»ĳi"
      ],
      [
        "Ġn",
        "on"
      ],
      [
        "Ġn",
        "Ãły"
      ],
      [
        "Ġwood",
        "working"
      ],
      [
        "Ġspec",
        "ial"
      ],
      [
        "Ġback",
        "g"
      ],
      [
        "Ġmentors",
        "hip"
      ],
      [
        "Ġt",
        "al"
      ],
      [
        "Ġph",
        "Æ°á»£ng"
      ],
      [
        "Ġf",
        "ir"
      ],
      [
        "Ġpro",
        "vid"
      ],
      [
        "Ġshap",
        "e"
      ],
      [
        "ĠQ",
        "u"
      ],
      [
        "Ġimag",
        "in"
      ],
      [
        "Ġ",
        "5"
      ],
      [
        "Ġm",
        "ark"
      ],
      [
        "ur",
        "ban"
      ],
      [
        "Ġth",
        "Ãªm"
      ],
      [
        "Ġch",
        "ar"
      ],
      [
        "ri",
        "b"
      ],
      [
        "Ġreflec",
        "ting"
      ],
      [
        "Ġnh",
        "Ã³m"
      ],
      [
        "qu",
        "es"
      ],
      [
        "Ġorganiz",
        "ation"
      ],
      [
        "Ġsup",
        "ervis"
      ],
      [
        "ĠÄĳ",
        "áº£m"
      ],
      [
        "Ġn",
        "av"
      ],
      [
        "oc",
        "k"
      ],
      [
        "Ġsketch",
        "ing"
      ],
      [
        "i",
        "ate"
      ],
      [
        "Ġa",
        "round"
      ],
      [
        "Ġe",
        "lec"
      ],
      [
        "Ġco",
        "ast"
      ],
      [
        "ĠÄĳá»",
        "ı"
      ],
      [
        "Ġt",
        "ay"
      ],
      [
        "Ġw",
        "e"
      ],
      [
        "Ġexperi",
        "ences"
      ],
      [
        "Ġtr",
        "ÃŃ"
      ],
      [
        "Ġg",
        "ener"
      ],
      [
        "t",
        "able"
      ],
      [
        "Ġchá»",
        "ī"
      ],
      [
        "Ġfo",
        "ot"
      ],
      [
        "Ġla",
        "unch"
      ],
      [
        "Ġread",
        "s"
      ],
      [
        "Ġh",
        "Æ°á»Ľng"
      ],
      [
        "ĠG",
        "i"
      ],
      [
        "Ġmaintain",
        "s"
      ],
      [
        "ĠL",
        "o"
      ],
      [
        "Ġconf",
        "lic"
      ],
      [
        "Ġs",
        "ub"
      ],
      [
        "ĠBl",
        "ack"
      ],
      [
        "Ġnav",
        "ig"
      ],
      [
        "a",
        "ti"
      ],
      [
        "Ġin",
        "iti"
      ],
      [
        "ĠN",
        "ai"
      ],
      [
        "ĠA",
        "s"
      ],
      [
        "ic",
        "es"
      ],
      [
        "t",
        "le"
      ],
      [
        "Ġn",
        "Ã¢ng"
      ],
      [
        "Ġtechn",
        "i"
      ],
      [
        "Ġsa",
        "u"
      ],
      [
        "ĠTra",
        "ng"
      ],
      [
        "g",
        "ree"
      ],
      [
        "Ġp",
        "uzz"
      ],
      [
        "Ġt",
        "áº¥m"
      ],
      [
        "Ġm",
        "ind"
      ],
      [
        "Ġst",
        "yle"
      ],
      [
        "iti",
        "ner"
      ],
      [
        "Ġ",
        "itiner"
      ],
      [
        "Ġsustain",
        "able"
      ],
      [
        "Ġti",
        "Ãªu"
      ],
      [
        "M",
        "ar"
      ],
      [
        "áº",
        "µ"
      ],
      [
        "Ġf",
        "arm"
      ],
      [
        "Ġf",
        "inds"
      ],
      [
        "ĠA",
        "l"
      ],
      [
        "Ġrec",
        "ord"
      ],
      [
        "Ġbro",
        "ad"
      ],
      [
        "Ġfoot",
        "ball"
      ],
      [
        "Ġa",
        "g"
      ],
      [
        "Ã¡",
        "ch"
      ],
      [
        "Ġre",
        "m"
      ],
      [
        "ut",
        "e"
      ],
      [
        "Ġpres",
        "erv"
      ],
      [
        "Ġrh",
        "yth"
      ],
      [
        "ol",
        "id"
      ],
      [
        "Ġex",
        "hib"
      ],
      [
        "Ġde",
        "gree"
      ],
      [
        "Ġenv",
        "isions"
      ],
      [
        "ic",
        "tion"
      ],
      [
        "Ã¬",
        "n"
      ],
      [
        "T",
        "h"
      ],
      [
        "l",
        "ess"
      ],
      [
        "Ġinclud",
        "es"
      ],
      [
        "Ġho",
        "sp"
      ],
      [
        "ĠB",
        "áº¿n"
      ],
      [
        "Ġs",
        "als"
      ],
      [
        "ir",
        "d"
      ],
      [
        "Ġthe",
        "o"
      ],
      [
        "re",
        "liance"
      ],
      [
        "Ġf",
        "iction"
      ],
      [
        "Ġr",
        "un"
      ],
      [
        "Ġn",
        "á»¯"
      ],
      [
        "ĠÄĳá»",
        "ĵ"
      ],
      [
        "ten",
        "ance"
      ],
      [
        "Ġsta",
        "ff"
      ],
      [
        "Ġt",
        "Æ°Æ¡ng"
      ],
      [
        "Ġth",
        "iá»ĩn"
      ],
      [
        "Ġphá»",
        "¥"
      ],
      [
        "Ġperform",
        "ances"
      ],
      [
        "Ġcle",
        "ar"
      ],
      [
        "ic",
        "s"
      ],
      [
        "a",
        "w"
      ],
      [
        "d",
        "ay"
      ],
      [
        "ĠH",
        "Ã¹ng"
      ],
      [
        "T",
        "E"
      ],
      [
        "áº",
        "½"
      ],
      [
        "Ġthe",
        "ater"
      ],
      [
        "Ġng",
        "Ãłnh"
      ],
      [
        "Ãł",
        "o"
      ],
      [
        "Ġl",
        "ai"
      ],
      [
        "Ġp",
        "ick"
      ],
      [
        "Ġwor",
        "ld"
      ],
      [
        "Ġl",
        "áºŃp"
      ],
      [
        "Ġtechni",
        "ques"
      ],
      [
        "Ġhosp",
        "ital"
      ],
      [
        "Ġs",
        "ee"
      ],
      [
        "ĠÄĳá»",
        "įc"
      ],
      [
        "Ġsc",
        "en"
      ],
      [
        "Ġk",
        "itch"
      ],
      [
        "ĠC",
        "ol"
      ],
      [
        "Ġveget",
        "able"
      ],
      [
        "Ġdocu",
        "ment"
      ],
      [
        "ent",
        "le"
      ],
      [
        "Ġg",
        "r"
      ],
      [
        "ĠS",
        "TE"
      ],
      [
        "Ġstrateg",
        "ic"
      ],
      [
        "Ġcertific",
        "ation"
      ],
      [
        "Ġprag",
        "matic"
      ],
      [
        "Ġl",
        "Æ°Æ¡ng"
      ],
      [
        "bas",
        "ed"
      ],
      [
        "y",
        "l"
      ],
      [
        "Ġs",
        "er"
      ],
      [
        "Ġt",
        "as"
      ],
      [
        "Ġd",
        "áº¡"
      ],
      [
        "Ġg",
        "entle"
      ],
      [
        "Ġqu",
        "áº£"
      ],
      [
        "ting",
        "s"
      ],
      [
        "Ġinv",
        "ent"
      ],
      [
        "Ġtrans",
        "ition"
      ],
      [
        "o",
        "nd"
      ],
      [
        "u",
        "is"
      ],
      [
        "Ġo",
        "th"
      ],
      [
        "ĠGi",
        "Ã³ng"
      ],
      [
        "el",
        "ing"
      ],
      [
        "un",
        "ior"
      ],
      [
        "Ġar",
        "ch"
      ],
      [
        "id",
        "a"
      ],
      [
        "Ġpre",
        "d"
      ],
      [
        "Ġjo",
        "ins"
      ],
      [
        "Ġcra",
        "ft"
      ],
      [
        "Ġc",
        "ross"
      ],
      [
        "Ġcre",
        "ativ"
      ],
      [
        "Ġfam",
        "il"
      ],
      [
        "Ġprepar",
        "ing"
      ],
      [
        "ub",
        "les"
      ],
      [
        "oun",
        "tain"
      ],
      [
        "Ġkitch",
        "en"
      ],
      [
        "Ġ",
        "ÃĶng"
      ],
      [
        "Ġh",
        "on"
      ],
      [
        "Ġsals",
        "a"
      ],
      [
        "Ġceleb",
        "r"
      ],
      [
        "fi",
        "ed"
      ],
      [
        "Ġpursu",
        "its"
      ],
      [
        "ad",
        "o"
      ],
      [
        "Ġmod",
        "ern"
      ],
      [
        "Ġb",
        "i"
      ],
      [
        "Ġin",
        "form"
      ],
      [
        "Ġph",
        "Ã²ng"
      ],
      [
        "Ġne",
        "ed"
      ],
      [
        "Ġrelax",
        "ed"
      ],
      [
        "Ġoutdo",
        "or"
      ],
      [
        "Ġnh",
        "áº¹"
      ],
      [
        "Ġo",
        "b"
      ],
      [
        "Ġdream",
        "ing"
      ],
      [
        "ĠSTE",
        "M"
      ],
      [
        "y",
        "e"
      ],
      [
        "Ġcá»",
        "¥"
      ],
      [
        "Ġshar",
        "ing"
      ],
      [
        "Ġhospital",
        "ity"
      ],
      [
        "ul",
        "t"
      ],
      [
        "u",
        "i"
      ],
      [
        "Ġso",
        "ul"
      ],
      [
        "ĠbÃ¡",
        "n"
      ],
      [
        "s",
        "on"
      ],
      [
        "v",
        "ille"
      ],
      [
        "Ġng",
        "he"
      ],
      [
        "ot",
        "ed"
      ],
      [
        "Ġcraf",
        "ts"
      ],
      [
        "ĠC",
        "Ã¡t"
      ],
      [
        "áº¯",
        "m"
      ],
      [
        "an",
        "ts"
      ],
      [
        "Ġtiáº¿",
        "n"
      ],
      [
        "Ġinflu",
        "ences"
      ],
      [
        "is",
        "ts"
      ],
      [
        "Ġcomm",
        "it"
      ],
      [
        "Ġreti",
        "red"
      ],
      [
        "it",
        "es"
      ],
      [
        "Ġfu",
        "els"
      ],
      [
        "Ġj",
        "unior"
      ],
      [
        "Ġe",
        "arn"
      ],
      [
        "ĠG",
        "re"
      ],
      [
        "ug",
        "g"
      ],
      [
        "n",
        "ed"
      ],
      [
        "Ġd",
        "Ã¹"
      ],
      [
        "Ġn",
        "ights"
      ],
      [
        "Ġch",
        "ick"
      ],
      [
        "Ġcomp",
        "assion"
      ],
      [
        "Ġso",
        "ur"
      ],
      [
        "k",
        "nit"
      ],
      [
        "Ġman",
        "age"
      ],
      [
        "Ġshow",
        "cas"
      ],
      [
        "Ġdeta",
        "il"
      ],
      [
        "ģ",
        "m"
      ],
      [
        "Ġh",
        "aving"
      ],
      [
        "ĠÄĳ",
        "á»Ļi"
      ],
      [
        "a",
        "f"
      ],
      [
        "ĠN",
        "or"
      ],
      [
        "Ġvis",
        "its"
      ],
      [
        "Ġinvent",
        "ory"
      ],
      [
        "Ġb",
        "iá»ĥn"
      ],
      [
        "Ġher",
        "bs"
      ],
      [
        "ĠP",
        "ro"
      ],
      [
        "ĠÄĲ",
        "Ãł"
      ],
      [
        "Ġanal",
        "ys"
      ],
      [
        "Ġcollabor",
        "ative"
      ],
      [
        "Ġh",
        "olid"
      ],
      [
        "Ġmá»",
        "ģm"
      ],
      [
        "Ġbackg",
        "round"
      ],
      [
        "Ġs",
        "um"
      ],
      [
        "is",
        "c"
      ],
      [
        "Ġevent",
        "ually"
      ],
      [
        "ep",
        "end"
      ],
      [
        "Ġadvent",
        "ure"
      ],
      [
        "Ġn",
        "á»ĳi"
      ],
      [
        "Ġstre",
        "et"
      ],
      [
        "p",
        "er"
      ],
      [
        "ar",
        "ies"
      ],
      [
        "ra",
        "nd"
      ],
      [
        "Ġres",
        "il"
      ],
      [
        "Ġtra",
        "nh"
      ],
      [
        "Ġpub",
        "lic"
      ],
      [
        "Ġlead",
        "ing"
      ],
      [
        "Ġb",
        "Ãº"
      ],
      [
        "áº¡",
        "p"
      ],
      [
        "Ġan",
        "im"
      ],
      [
        "ient",
        "ed"
      ],
      [
        "Ġengine",
        "ering"
      ],
      [
        "at",
        "ure"
      ],
      [
        "Ġs",
        "Ä©"
      ],
      [
        "an",
        "a"
      ],
      [
        "le",
        "t"
      ],
      [
        "Ġinter",
        "p"
      ],
      [
        "d",
        "e"
      ],
      [
        "Ġv",
        "ide"
      ],
      [
        "or",
        "iented"
      ],
      [
        "et",
        "er"
      ],
      [
        "iv",
        "ing"
      ],
      [
        "Ġm",
        "ang"
      ],
      [
        "Ġcuri",
        "ous"
      ],
      [
        "lo",
        "om"
      ],
      [
        "o",
        "b"
      ],
      [
        "Ġiniti",
        "atives"
      ],
      [
        "Ġelec",
        "tr"
      ],
      [
        "s",
        "chool"
      ],
      [
        "Ä",
        "Ĳ"
      ],
      [
        "Ġ",
        "ill"
      ],
      [
        "Ġhom",
        "em"
      ],
      [
        "o",
        "Ãłng"
      ],
      [
        "t",
        "ry"
      ],
      [
        "y",
        "ing"
      ],
      [
        "Ġte",
        "nd"
      ],
      [
        "Ġchick",
        "en"
      ],
      [
        "Ġorganiz",
        "ational"
      ],
      [
        "Ġrel",
        "iable"
      ],
      [
        "ful",
        "ly"
      ],
      [
        "Ġhelp",
        "ing"
      ],
      [
        "b",
        "r"
      ],
      [
        "Ġv",
        "Ã¹ng"
      ],
      [
        "Ġcreativ",
        "ity"
      ],
      [
        "á»",
        "įc"
      ],
      [
        "Ġh",
        "Æ°Æ¡ng"
      ],
      [
        "an",
        "y"
      ],
      [
        "Ġst",
        "e"
      ],
      [
        "Ġexplor",
        "ed"
      ],
      [
        "ĠÄĳ",
        "Æ¡n"
      ],
      [
        "Ġshow",
        "s"
      ],
      [
        "min",
        "ist"
      ],
      [
        "ubles",
        "ho"
      ],
      [
        "o",
        "ting"
      ],
      [
        "u",
        "tions"
      ],
      [
        "Ġe",
        "qu"
      ],
      [
        "ĠO",
        "r"
      ],
      [
        "Ġtro",
        "ublesho"
      ],
      [
        "o",
        "áº¡i"
      ],
      [
        "Ġh",
        "ard"
      ],
      [
        "Ġcre",
        "ating"
      ],
      [
        "Ġt",
        "ies"
      ],
      [
        "ĠNg",
        "a"
      ],
      [
        "Ġparticip",
        "ating"
      ],
      [
        "end",
        "ly"
      ],
      [
        "Ġposs",
        "esses"
      ],
      [
        "ti",
        "st"
      ],
      [
        "Ġplan",
        "ned"
      ],
      [
        "Ġmanag",
        "er"
      ],
      [
        "Ġtom",
        "atoes"
      ],
      [
        "Ġill",
        "ust"
      ],
      [
        "v",
        "is"
      ],
      [
        "Ġin",
        "n"
      ],
      [
        "Ġch",
        "áº£"
      ],
      [
        "fic",
        "tion"
      ],
      [
        "Ġper",
        "f"
      ],
      [
        "ĠSout",
        "h"
      ],
      [
        "Ġhomem",
        "ade"
      ],
      [
        "Ġnh",
        "á»ĭp"
      ],
      [
        "fic",
        "i"
      ],
      [
        "Ġwal",
        "king"
      ],
      [
        "Ġsoft",
        "ware"
      ],
      [
        "Ġamb",
        "ition"
      ],
      [
        "Ġv",
        "ui"
      ],
      [
        "ĠA",
        "fr"
      ],
      [
        "ĠAfr",
        "ican"
      ],
      [
        "Ġr",
        "ig"
      ],
      [
        "ĠPh",
        "Æ°Æ¡ng"
      ],
      [
        "Ġh",
        "um"
      ],
      [
        "Ġto",
        "ur"
      ],
      [
        "Ġnh",
        "Ãłng"
      ],
      [
        "ĠD",
        "inh"
      ],
      [
        "Ġbas",
        "e"
      ],
      [
        "Ġdevelop",
        "ment"
      ],
      [
        "Ġproc",
        "ess"
      ],
      [
        "Ġind",
        "ust"
      ],
      [
        "i",
        "ous"
      ],
      [
        "Ġl",
        "Æ°á»£ng"
      ],
      [
        "an",
        "k"
      ],
      [
        "ĠÄĳ",
        "Ã´"
      ],
      [
        "ab",
        "les"
      ],
      [
        "use",
        "um"
      ],
      [
        "ĠbÃº",
        "n"
      ],
      [
        "d",
        "er"
      ],
      [
        "i",
        "ting"
      ],
      [
        "Ġl",
        "et"
      ],
      [
        "Ġcu",
        "is"
      ],
      [
        "Ġc",
        "Ã¢y"
      ],
      [
        "ro",
        "om"
      ],
      [
        "Ġg",
        "eta"
      ],
      [
        "Ġch",
        "áº¥t"
      ],
      [
        "Ġpos",
        "ition"
      ],
      [
        "u",
        "tion"
      ],
      [
        "Ġth",
        "áº¿"
      ],
      [
        "ar",
        "l"
      ],
      [
        "ur",
        "g"
      ],
      [
        "el",
        "ong"
      ],
      [
        "Ġst",
        "and"
      ],
      [
        "fici",
        "ency"
      ],
      [
        "Ġf",
        "avors"
      ],
      [
        "ir",
        "loom"
      ],
      [
        "ĠM",
        "useum"
      ],
      [
        "ĠL",
        "áºŃp"
      ],
      [
        "ĠH",
        "oa"
      ],
      [
        "ĠÄĲ",
        "á»Ļc"
      ],
      [
        "ĠlÃ",
        "£"
      ],
      [
        "I",
        "n"
      ],
      [
        "Ġhe",
        "irloom"
      ],
      [
        "Ġtw",
        "o"
      ],
      [
        "A",
        "n"
      ],
      [
        "Ġcont",
        "rib"
      ],
      [
        "Ġmain",
        "tenance"
      ],
      [
        "Ġrespons",
        "ib"
      ],
      [
        "áºµ",
        "ng"
      ],
      [
        "ĠN",
        "áºµng"
      ],
      [
        "ĠNg",
        "á»įc"
      ],
      [
        "om",
        "m"
      ],
      [
        "ticul",
        "tural"
      ],
      [
        "Ġfo",
        "und"
      ],
      [
        "Ġcoast",
        "al"
      ],
      [
        "Ġan",
        "x"
      ],
      [
        "Ġgi",
        "áº£n"
      ],
      [
        "Ġc",
        "ity"
      ],
      [
        "it",
        "ar"
      ],
      [
        "Ġcol",
        "le"
      ],
      [
        "is",
        "m"
      ],
      [
        "Ġsc",
        "ene"
      ],
      [
        "Ġemphasiz",
        "ed"
      ],
      [
        "Ġpuzz",
        "les"
      ],
      [
        "ti",
        "t"
      ],
      [
        "Ġho",
        "b"
      ],
      [
        "Ġr",
        "est"
      ],
      [
        "ĠTh",
        "áº£o"
      ],
      [
        "Ġkh",
        "Ã³a"
      ],
      [
        "iz",
        "e"
      ],
      [
        "Ġreflec",
        "t"
      ],
      [
        "Ġch",
        "Ã¨o"
      ],
      [
        "Ġanalys",
        "is"
      ],
      [
        "Ĺ",
        "i"
      ],
      [
        "Ġx",
        "e"
      ],
      [
        "A",
        "l"
      ],
      [
        "g",
        "ro"
      ],
      [
        "Æ°",
        "ng"
      ],
      [
        "Ġvis",
        "it"
      ],
      [
        "Ġtr",
        "áº£i"
      ],
      [
        "ile",
        "d"
      ],
      [
        "Ġdes",
        "ire"
      ],
      [
        "©",
        "ng"
      ],
      [
        "Ġsm",
        "oked"
      ],
      [
        "ĠWh",
        "ile"
      ],
      [
        "i",
        "er"
      ],
      [
        "re",
        "ach"
      ],
      [
        "Ġch",
        "uyáº¿n"
      ],
      [
        "Ġs",
        "ales"
      ],
      [
        "imp",
        "act"
      ],
      [
        "ĠY",
        "ork"
      ],
      [
        "«",
        "a"
      ],
      [
        "áº·",
        "t"
      ],
      [
        "Ġcomp",
        "liance"
      ],
      [
        "o",
        "ur"
      ],
      [
        "al",
        "i"
      ],
      [
        "ĠF",
        "lor"
      ],
      [
        "ff",
        "ec"
      ],
      [
        "un",
        "c"
      ],
      [
        "al",
        "ity"
      ],
      [
        "Ġto",
        "ward"
      ],
      [
        "ĠA",
        "ng"
      ],
      [
        "Ġfoster",
        "ing"
      ],
      [
        "u",
        "ti"
      ],
      [
        "Ġqu",
        "anh"
      ],
      [
        "Ġho",
        "áº·c"
      ],
      [
        "Ġcon",
        "tin"
      ],
      [
        "Ġbá»",
        "ĥ"
      ],
      [
        "r",
        "al"
      ],
      [
        "Ġc",
        "ent"
      ],
      [
        "ĠS",
        "e"
      ],
      [
        "Ġhelp",
        "s"
      ],
      [
        "Ġsystem",
        "s"
      ],
      [
        "Ġeth",
        "ic"
      ],
      [
        "Ġf",
        "ac"
      ],
      [
        "Ġtr",
        "Æ°á»Łng"
      ],
      [
        "Ġan",
        "c"
      ],
      [
        "áº¯",
        "p"
      ],
      [
        "Ġsoc",
        "iable"
      ],
      [
        "Ġregul",
        "ar"
      ],
      [
        "Ġxu",
        "áº¥t"
      ],
      [
        "Ġmem",
        "ber"
      ],
      [
        "at",
        "s"
      ],
      [
        "Ġn",
        "em"
      ],
      [
        "Ġe",
        "ye"
      ],
      [
        "Ġout",
        "reach"
      ],
      [
        "Ġfl",
        "u"
      ],
      [
        "Ġ",
        "Ã¢m"
      ],
      [
        "Ġm",
        "on"
      ],
      [
        "p",
        "ing"
      ],
      [
        "Ġph",
        "im"
      ],
      [
        "Ġcusto",
        "mer"
      ],
      [
        "Ġb",
        "ird"
      ],
      [
        "Ġf",
        "airs"
      ],
      [
        "Ġpractic",
        "e"
      ],
      [
        "Ġprecis",
        "ion"
      ],
      [
        "Ġmul",
        "ticultural"
      ],
      [
        "ĠTex",
        "as"
      ],
      [
        "Ġm",
        "in"
      ],
      [
        "Ġm",
        "orning"
      ],
      [
        "el",
        "ves"
      ],
      [
        "ter",
        "y"
      ],
      [
        "in",
        "n"
      ],
      [
        "ag",
        "o"
      ],
      [
        "Ġpar",
        "ents"
      ],
      [
        "Ġgu",
        "itar"
      ],
      [
        "Ġapp",
        "ly"
      ],
      [
        "i",
        "ents"
      ],
      [
        "y",
        "m"
      ],
      [
        "Ġt",
        "ur"
      ],
      [
        "iá»ĩ",
        "m"
      ],
      [
        "ĠG",
        "ia"
      ],
      [
        "uá»ĳ",
        "c"
      ],
      [
        "Ġbud",
        "ding"
      ],
      [
        "Ġch",
        "ild"
      ],
      [
        "ĠC",
        "ity"
      ],
      [
        "bo",
        "ok"
      ],
      [
        "Ġinn",
        "ov"
      ],
      [
        "ĠH",
        "uá»"
      ],
      [
        "Ġ",
        "áº£nh"
      ],
      [
        "Ġqu",
        "il"
      ],
      [
        "ce",
        "p"
      ],
      [
        "ar",
        "b"
      ],
      [
        "ia",
        "b"
      ],
      [
        "Ġr",
        "i"
      ],
      [
        "Ġváº",
        "½"
      ],
      [
        "Ġcooper",
        "ative"
      ],
      [
        "C",
        "M"
      ],
      [
        "in",
        "f"
      ],
      [
        "Ġvide",
        "o"
      ],
      [
        "k",
        "a"
      ],
      [
        "Ġt",
        "Ã¡c"
      ],
      [
        "Ġcraf",
        "ting"
      ],
      [
        "lo",
        "ok"
      ],
      [
        "ĠbÃł",
        "n"
      ],
      [
        "Ġconn",
        "ec"
      ],
      [
        "g",
        "ener"
      ],
      [
        "Ġc",
        "Ã¢n"
      ],
      [
        "Ġd",
        "ist"
      ],
      [
        "Ġlead",
        "s"
      ],
      [
        "Ġtrá»",
        "įng"
      ],
      [
        "Ġfl",
        "avors"
      ],
      [
        "Ġphá»",
        "¥c"
      ],
      [
        "ĠS",
        "h"
      ],
      [
        "Ġsh",
[...]
